{
  "version": "1.0",
  "truncation": null,
  "padding": null,
  "added_tokens": [
    {
      "id": 0,
      "content": "<|unknown|>",
      "single_word": false,
      "lstrip": false,
      "rstrip": false,
      "normalized": false,
      "special": true
    },
    {
      "id": 2049,
      "content": "<|endoftext|>",
      "single_word": false,
      "lstrip": false,
      "rstrip": false,
      "normalized": false,
      "special": true
    },
    {
      "id": 2050,
      "content": "<|endofpart|>",
      "single_word": false,
      "lstrip": false,
      "rstrip": false,
      "normalized": false,
      "special": true
    }
  ],
  "normalizer": {
    "type": "Sequence",
    "normalizers": [
      {
        "type": "NFKC"
      },
      {
        "type": "Lowercase"
      }
    ]
  },
  "pre_tokenizer": {
    "type": "Sequence",
    "pretokenizers": [
      {
        "type": "Split",
        "pattern": {
          "Regex": "<\\|(?:unknown|endoftext|endofpart)\\|>"
        },
        "behavior": "Isolated",
        "invert": false
      },
      {
        "type": "Metaspace",
        "replacement": "▁",
        "prepend_scheme": "never",
        "split": true
      },
      {
        "type": "Split",
        "pattern": {
          "Regex": "\\n+"
        },
        "behavior": "Isolated",
        "invert": false
      },
      {
        "type": "Punctuation",
        "behavior": "Isolated"
      }
    ]
  },
  "post_processor": null,
  "decoder": {
    "type": "Metaspace",
    "replacement": "▁",
    "prepend_scheme": "never",
    "split": true
  },
  "model": {
    "type": "BPE",
    "dropout": null,
    "unk_token": "<|unknown|>",
    "continuing_subword_prefix": null,
    "end_of_word_suffix": null,
    "fuse_unk": false,
    "byte_fallback": false,
    "ignore_merges": false,
    "vocab": {
      "<|unknown|>": 0,
      "\n": 1,
      "!": 2,
      "\"": 3,
      "'": 4,
      "(": 5,
      ")": 6,
      ",": 7,
      "-": 8,
      ".": 9,
      "/": 10,
      ":": 11,
      ";": 12,
      "<": 13,
      ">": 14,
      "?": 15,
      "[": 16,
      "\\": 17,
      "]": 18,
      "`": 19,
      "{": 20,
      "}": 21,
      "«": 22,
      "´": 23,
      "»": 24,
      "а": 25,
      "б": 26,
      "в": 27,
      "г": 28,
      "д": 29,
      "е": 30,
      "ж": 31,
      "з": 32,
      "и": 33,
      "й": 34,
      "к": 35,
      "л": 36,
      "м": 37,
      "н": 38,
      "о": 39,
      "п": 40,
      "р": 41,
      "с": 42,
      "т": 43,
      "у": 44,
      "ф": 45,
      "х": 46,
      "ц": 47,
      "ч": 48,
      "ш": 49,
      "щ": 50,
      "ь": 51,
      "ю": 52,
      "я": 53,
      "є": 54,
      "і": 55,
      "ї": 56,
      "ґ": 57,
      "–": 58,
      "—": 59,
      "’": 60,
      "“": 61,
      "”": 62,
      "„": 63,
      "…": 64,
      "▁": 65,
      "▁с": 66,
      "▁н": 67,
      "▁п": 68,
      "▁в": 69,
      "та": 70,
      "ли": 71,
      "ла": 72,
      "▁д": 73,
      "▁з": 74,
      "ти": 75,
      "▁м": 76,
      "ро": 77,
      "ть": 78,
      "▁б": 79,
      "на": 80,
      "го": 81,
      "ко": 82,
      "то": 83,
      "▁не": 84,
      "ра": 85,
      "ка": 86,
      "не": 87,
      "ло": 88,
      "▁по": 89,
      "ри": 90,
      "▁на": 91,
      "ва": 92,
      "сь": 93,
      "ер": 94,
      "но": 95,
      "ся": 96,
      "во": 97,
      "ни": 98,
      "ні": 99,
      "▁т": 100,
      "ки": 101,
      "▁о": 102,
      "▁за": 103,
      "ди": 104,
      "▁і": 105,
      "по": 106,
      "▁мо": 107,
      "да": 108,
      "лю": 109,
      "▁й": 110,
      "чи": 111,
      "ми": 112,
      "де": 113,
      "ну": 114,
      "ві": 115,
      "▁до": 116,
      "ви": 117,
      "▁я": 118,
      "лі": 119,
      "▁у": 120,
      "ля": 121,
      "мо": 122,
      "за": 123,
      "ма": 124,
      "▁х": 125,
      "ре": 126,
      "що": 127,
      "га": 128,
      "те": 129,
      "же": 130,
      "ле": 131,
      "ру": 132,
      "до": 133,
      "▁та": 134,
      "ку": 135,
      "бо": 136,
      "рі": 137,
      "ду": 138,
      "ті": 139,
      "▁ж": 140,
      "▁го": 141,
      "▁ч": 142,
      "▁то": 143,
      "▁к": 144,
      "▁ко": 145,
      "хо": 146,
      "нь": 147,
      "▁бо": 148,
      "▁г": 149,
      "ве": 150,
      "би": 151,
      "▁во": 152,
      "ль": 153,
      "▁ма": 154,
      "▁лю": 155,
      "му": 156,
      "▁ти": 157,
      "па": 158,
      "се": 159,
      "▁ро": 160,
      "че": 161,
      "ст": 162,
      "ді": 163,
      "▁со": 164,
      "▁а": 165,
      "си": 166,
      "\n\n": 167,
      "▁ви": 168,
      "▁ка": 169,
      "▁бу": 170,
      "▁про": 171,
      "ться": 172,
      "▁си": 173,
      "ча": 174,
      "ого": 175,
      "▁ді": 176,
      "лу": 177,
      "ста": 178,
      "▁ба": 179,
      "▁ме": 180,
      "▁що": 181,
      "пі": 182,
      "бі": 183,
      "жи": 184,
      "▁ш": 185,
      "ба": 186,
      "▁ста": 187,
      "ня": 188,
      "пи": 189,
      "ють": 190,
      "▁те": 191,
      "ву": 192,
      "бе": 193,
      "ці": 194,
      "ха": 195,
      "як": 196,
      "мі": 197,
      "це": 198,
      "ере": 199,
      "▁роз": 200,
      "ги": 201,
      "са": 202,
      "ту": 203,
      "▁па": 204,
      "▁ні": 205,
      "▁при": 206,
      "лись": 207,
      "ря": 208,
      "▁ми": 209,
      "▁ди": 210,
      "▁хо": 211,
      "ій": 212,
      "▁ду": 213,
      "бу": 214,
      "ще": 215,
      "лась": 216,
      "▁ві": 217,
      "сі": 218,
      "сти": 219,
      "▁се": 220,
      "▁сві": 221,
      "вя": 222,
      "▁ра": 223,
      "▁як": 224,
      "▁ї": 225,
      "ме": 226,
      "▁зна": 227,
      "чі": 228,
      "▁са": 229,
      "со": 230,
      "▁чу": 231,
      "чу": 232,
      "▁ве": 233,
      "ний": 234,
      "гу": 235,
      "▁пі": 236,
      "кра": 237,
      "▁сер": 238,
      "▁од": 239,
      "▁да": 240,
      "жа": 241,
      "▁ха": 242,
      "ши": 243,
      "▁га": 244,
      "▁ва": 245,
      "▁ли": 246,
      "ше": 247,
      "▁сво": 248,
      "▁де": 249,
      "про": 250,
      "мов": 251,
      "зи": 252,
      "\n\n\n": 253,
      "▁жи": 254,
      "▁ц": 255,
      "▁и": 256,
      "кий": 257,
      "хи": 258,
      "▁ті": 259,
      "▁свя": 260,
      "так": 261,
      "вали": 262,
      "▁пла": 263,
      "▁так": 264,
      "ска": 265,
      "▁його": 266,
      "▁доб": 267,
      "сто": 268,
      "▁собі": 269,
      "▁люде": 270,
      "▁зе": 271,
      "▁все": 272,
      "▁бе": 273,
      "▁но": 274,
      "▁буде": 275,
      "▁бра": 276,
      "лось": 277,
      "▁мати": 278,
      "▁мене": 279,
      "тя": 280,
      "▁чи": 281,
      "▁моло": 282,
      "кі": 283,
      "ор": 284,
      "вся": 285,
      "▁лі": 286,
      "▁ще": 287,
      "нько": 288,
      "льо": 289,
      "▁ру": 290,
      "пу": 291,
      "жу": 292,
      "▁кра": 293,
      "▁ни": 294,
      "▁пе": 295,
      "щоб": 296,
      "▁укра": 297,
      "сла": 298,
      "пе": 299,
      "су": 300,
      "спо": 301,
      "ця": 302,
      "▁дру": 303,
      "тий": 304,
      "▁пра": 305,
      "▁мені": 306,
      "▁сі": 307,
      "▁сла": 308,
      "рий": 309,
      "▁ту": 310,
      "ць": 311,
      "▁той": 312,
      "піва": 313,
      "▁ки": 314,
      "чку": 315,
      "ша": 316,
      "▁є": 317,
      "▁зем": 318,
      "▁ку": 319,
      "дя": 320,
      "▁пи": 321,
      "▁вже": 322,
      "▁кри": 323,
      "дить": 324,
      "▁моя": 325,
      "тер": 326,
      "▁серце": 327,
      "чого": 328,
      "єш": 329,
      "▁ст": 330,
      "вати": 331,
      "▁коза": 332,
      "роз": 333,
      "▁бі": 334,
      "▁світі": 335,
      "дь": 336,
      "ком": 337,
      "ною": 338,
      "▁гу": 339,
      "ому": 340,
      "кого": 341,
      "▁мій": 342,
      "шу": 343,
      "▁сто": 344,
      "▁тебе": 345,
      "вий": 346,
      "▁ле": 347,
      "лася": 348,
      "▁без": 349,
      "▁пере": 350,
      "шла": 351,
      "▁би": 352,
      "сту": 353,
      "▁тво": 354,
      "▁дів": 355,
      "▁украї": 356,
      "зя": 357,
      "пла": 358,
      "щи": 359,
      "хай": 360,
      "▁мов": 361,
      "бра": 362,
      "ок": 363,
      "дає": 364,
      "чка": 365,
      "▁е": 366,
      "вала": 367,
      "▁ла": 368,
      "лися": 369,
      "наче": 370,
      "гля": 371,
      "▁пу": 372,
      "▁ца": 373,
      "вер": 374,
      "шо": 375,
      "▁сте": 376,
      "▁су": 377,
      "▁спа": 378,
      "▁сльо": 379,
      "тись": 380,
      "▁най": 381,
      "▁дити": 382,
      "▁нас": 383,
      "ном": 384,
      "цю": 385,
      "▁же": 386,
      "▁зо": 387,
      "бою": 388,
      "▁бога": 389,
      "йда": 390,
      "кри": 391,
      "▁ска": 392,
      "▁вер": 393,
      "▁чор": 394,
      "од": 395,
      "коли": 396,
      "всь": 397,
      "хто": 398,
      "ща": 399,
      "▁му": 400,
      "▁жа": 401,
      "▁їх": 402,
      "▁поки": 403,
      "диви": 404,
      "▁бачи": 405,
      "▁над": 406,
      "ного": 407,
      "лько": 408,
      "сть": 409,
      "пер": 410,
      "▁сло": 411,
      "▁моги": 412,
      "▁він": 413,
      "при": 414,
      "▁кро": 415,
      "▁сон": 416,
      "▁ши": 417,
      "аж": 418,
      "шли": 419,
      "зо": 420,
      "▁нема": 421,
      "▁боже": 422,
      "лий": 423,
      "▁люби": 424,
      "тає": 425,
      "▁під": 426,
      "жко": 427,
      "сво": 428,
      "свя": 429,
      "чер": 430,
      "▁море": 431,
      "▁госпо": 432,
      "▁того": 433,
      "▁бать": 434,
      "ке": 435,
      "▁зно": 436,
      "гом": 437,
      "ной": 438,
      "▁тя": 439,
      "поки": 440,
      "▁співа": 441,
      "того": 442,
      "▁нево": 443,
      "гада": 444,
      "▁дні": 445,
      "кою": 446,
      "▁от": 447,
      "йте": 448,
      "неначе": 449,
      "▁ча": 450,
      "ню": 451,
      "ками": 452,
      "▁весе": 453,
      "▁хати": 454,
      "мер": 455,
      "нув": 456,
      "дуть": 457,
      "▁бог": 458,
      "дою": 459,
      "ца": 460,
      "▁спо": 461,
      "ром": 462,
      "▁мої": 463,
      "▁прав": 464,
      "зе": 465,
      "нехай": 466,
      "▁лихо": 467,
      "▁пре": 468,
      "тала": 469,
      "рає": 470,
      "▁голо": 471,
      "вно": 472,
      "▁ля": 473,
      "том": 474,
      "дила": 475,
      "▁тихо": 476,
      "▁лу": 477,
      "тих": 478,
      "▁бла": 479,
      "пра": 480,
      "сте": 481,
      "чки": 482,
      "ші": 483,
      "▁он": 484,
      "▁із": 485,
      "▁свої": 486,
      "зу": 487,
      "зь": 488,
      "сли": 489,
      "сер": 490,
      "над": 491,
      "ная": 492,
      "▁зас": 493,
      "жі": 494,
      "тру": 495,
      "вать": 496,
      "▁сиро": 497,
      "ой": 498,
      "сті": 499,
      "ється": 500,
      "кому": 501,
      "▁поле": 502,
      "▁там": 503,
      "▁дівча": 504,
      "шов": 505,
      "тво": 506,
      "▁ре": 507,
      "▁помо": 508,
      "▁діти": 509,
      "єм": 510,
      "нуть": 511,
      "▁чер": 512,
      "▁смі": 513,
      "▁небо": 514,
      "лося": 515,
      "ній": 516,
      "▁люди": 517,
      "уже": 518,
      "ючи": 519,
      "▁очі": 520,
      "мовля": 521,
      "рина": 522,
      "▁тре": 523,
      "▁може": 524,
      "▁моска": 525,
      "деш": 526,
      "▁горе": 527,
      "▁ге": 528,
      "▁прок": 529,
      "ним": 530,
      "них": 531,
      "нька": 532,
      "▁сина": 533,
      "▁спи": 534,
      "ник": 535,
      "вши": 536,
      "▁ри": 537,
      "той": 538,
      "▁було": 539,
      "під": 540,
      "▁ло": 541,
      "▁її": 542,
      "ско": 543,
      "дала": 544,
      "▁жу": 545,
      "▁воро": 546,
      "смі": 547,
      "роби": 548,
      "ходи": 549,
      "▁світ": 550,
      "▁стра": 551,
      "▁сльози": 552,
      "отак": 553,
      "із": 554,
      "таки": 555,
      "нема": 556,
      "лом": 557,
      "ває": 558,
      "▁шля": 559,
      "▁диви": 560,
      "▁само": 561,
      "▁гуля": 562,
      "сло": 563,
      "▁рі": 564,
      "▁колись": 565,
      "▁вели": 566,
      "▁землі": 567,
      "▁знову": 568,
      "ються": 569,
      "▁взя": 570,
      "▁убо": 571,
      "▁мар": 572,
      "▁чужи": 573,
      "там": 574,
      "рить": 575,
      "вели": 576,
      "▁любо": 577,
      "▁шу": 578,
      "еред": 579,
      "▁знає": 580,
      "▁вста": 581,
      "▁щоб": 582,
      "▁стало": 583,
      "без": 584,
      "▁хату": 585,
      "ет": 586,
      "зна": 587,
      "тро": 588,
      "чок": 589,
      "▁бай": 590,
      "▁вас": 591,
      "▁плаче": 592,
      "бро": 593,
      "сю": 594,
      "▁похо": 595,
      "чить": 596,
      "▁тобі": 597,
      "▁старо": 598,
      "▁тем": 599,
      "▁хаті": 600,
      "дру": 601,
      "рю": 602,
      "рів": 603,
      "ньку": 604,
      "▁нічого": 605,
      "▁хоч": 606,
      "▁слово": 607,
      "▁неволі": 608,
      "тою": 609,
      "▁моє": 610,
      "ньки": 611,
      "▁літа": 612,
      "от": 613,
      "ять": 614,
      "▁мі": 615,
      "рома": 616,
      "коза": 617,
      "кала": 618,
      "пали": 619,
      "▁кайда": 620,
      "▁пан": 621,
      "▁свою": 622,
      "▁дівчата": 623,
      "бла": 624,
      "гла": 625,
      "▁всі": 626,
      "▁полі": 627,
      "▁оста": 628,
      "▁пала": 629,
      "зі": 630,
      "ху": 631,
      "чко": 632,
      "ную": 633,
      "мови": 634,
      "▁горо": 635,
      "▁тяжко": 636,
      "он": 637,
      "▁зло": 638,
      "▁моли": 639,
      "▁коло": 640,
      "хоч": 641,
      "▁аж": 642,
      "сить": 643,
      "▁знаю": 644,
      "кру": 645,
      "нці": 646,
      "пли": 647,
      "▁недо": 648,
      "▁доро": 649,
      "ман": 650,
      "▁коли": 651,
      "▁вона": 652,
      "▁хоче": 653,
      "▁батько": 654,
      "все": 655,
      "пре": 656,
      "ниці": 657,
      "▁три": 658,
      "люся": 659,
      "▁хто": 660,
      "▁село": 661,
      "▁сам": 662,
      "▁тілько": 663,
      "най": 664,
      "▁пога": 665,
      "дино": 666,
      "люби": 667,
      "▁грі": 668,
      "▁ша": 669,
      "▁друже": 670,
      "▁дитина": 671,
      "▁шука": 672,
      "ніє": 673,
      "▁тру": 674,
      "▁запла": 675,
      "весе": 676,
      "▁висо": 677,
      "якби": 678,
      "▁прий": 679,
      "▁сест": 680,
      "мене": 681,
      "▁вам": 682,
      "▁день": 683,
      "▁єди": 684,
      "▁широ": 685,
      "бри": 686,
      "бря": 687,
      "кло": 688,
      "сві": 689,
      "▁забу": 690,
      "поро": 691,
      "зами": 692,
      "▁голу": 693,
      "▁тих": 694,
      "▁тепер": 695,
      "▁душу": 696,
      "ге": 697,
      "как": 698,
      "▁наш": 699,
      "вою": 700,
      "дай": 701,
      "нула": 702,
      "▁тобою": 703,
      "▁бага": 704,
      "▁їй": 705,
      "гуля": 706,
      "▁чорно": 707,
      "гі": 708,
      "тре": 709,
      "▁ну": 710,
      "тая": 711,
      "▁нам": 712,
      "▁йому": 713,
      "тім": 714,
      "▁богу": 715,
      "вуть": 716,
      "▁милий": 717,
      "▁дума": 718,
      "▁сонце": 719,
      "або": 720,
      "гра": 721,
      "▁схо": 722,
      "лина": 723,
      "нії": 724,
      "див": 725,
      "▁доля": 726,
      "▁хре": 727,
      "▁кого": 728,
      "▁роби": 729,
      "стрі": 730,
      "▁старий": 731,
      "▁розмовля": 732,
      "▁добре": 733,
      "кії": 734,
      "кой": 735,
      "кої": 736,
      "▁неді": 737,
      "▁подиви": 738,
      "вони": 739,
      "дили": 740,
      "люде": 741,
      "▁хма": 742,
      "▁че": 743,
      "пала": 744,
      "▁діто": 745,
      "▁їм": 746,
      "▁чуж": 747,
      "▁добро": 748,
      "▁слава": 749,
      "▁україні": 750,
      "▁жаль": 751,
      "▁геть": 752,
      "тра": 753,
      "чо": 754,
      "▁вдо": 755,
      "▁ху": 756,
      "▁волю": 757,
      "▁людя": 758,
      "жий": 759,
      "▁садо": 760,
      "▁зеле": 761,
      "слав": 762,
      "дно": 763,
      "хі": 764,
      "▁це": 765,
      "дали": 766,
      "▁кру": 767,
      "▁матер": 768,
      "▁каже": 769,
      "▁була": 770,
      "▁меж": 771,
      "▁плачу": 772,
      "▁ними": 773,
      "▁сви": 774,
      "топи": 775,
      "дав": 776,
      "▁досі": 777,
      "тір": 778,
      "▁гори": 779,
      "▁вони": 780,
      "гий": 781,
      "▁дитя": 782,
      "▁своє": 783,
      "▁руки": 784,
      "▁дівчи": 785,
      "▁сказа": 786,
      "▁немає": 787,
      "▁блага": 788,
      "кій": 789,
      "сни": 790,
      "▁згада": 791,
      "тим": 792,
      "▁тро": 793,
      "вій": 794,
      "може": 795,
      "▁гово": 796,
      "ство": 797,
      "дії": 798,
      "▁вигля": 799,
      "▁кате": 800,
      "▁син": 801,
      "цілу": 802,
      "тую": 803,
      "▁себе": 804,
      "▁раз": 805,
      "▁жити": 806,
      "гне": 807,
      "його": 808,
      "шь": 809,
      "род": 810,
      "кую": 811,
      "тії": 812,
      "▁кня": 813,
      "▁как": 814,
      "нку": 815,
      "неться": 816,
      "ночі": 817,
      "ними": 818,
      "▁мою": 819,
      "дать": 820,
      "▁доли": 821,
      "▁доле": 822,
      "тебе": 823,
      "дом": 824,
      "дів": 825,
      "▁вий": 826,
      "мені": 827,
      "▁козак": 828,
      "▁україну": 829,
      "▁треба": 830,
      "▁прокля": 831,
      "кла": 832,
      "три": 833,
      "день": 834,
      "▁волі": 835,
      "жить": 836,
      "нята": 837,
      "▁пана": 838,
      "▁села": 839,
      "▁тії": 840,
      "▁брата": 841,
      "▁найми": 842,
      "талан": 843,
      "прав": 844,
      "▁москалі": 845,
      "две": 846,
      "нка": 847,
      "їть": 848,
      "тися": 849,
      "▁мною": 850,
      "▁дове": 851,
      "моя": 852,
      "тілько": 853,
      "▁божий": 854,
      "вед": 855,
      "▁собою": 856,
      "▁виро": 857,
      "▁брате": 858,
      "▁слав": 859,
      "▁скаже": 860,
      "▁чужині": 861,
      "▁людям": 862,
      "гли": 863,
      "яне": 864,
      "їв": 865,
      "тай": 866,
      "нах": 867,
      "▁неї": 868,
      "вай": 869,
      "почи": 870,
      "він": 871,
      "ійш": 872,
      "хили": 873,
      "▁кров": 874,
      "▁спочи": 875,
      "серце": 876,
      "▁чорнобри": 877,
      "кро": 878,
      "▁ф": 879,
      "▁слі": 880,
      "▁сле": 881,
      "▁мне": 882,
      "лоп": 883,
      "▁поро": 884,
      "вари": 885,
      "зав": 886,
      "▁ке": 887,
      "▁воль": 888,
      "▁водою": 889,
      "▁тим": 890,
      "чай": 891,
      "▁шко": 892,
      "пусти": 893,
      "▁тут": 894,
      "дять": 895,
      "▁перед": 896,
      "ск": 897,
      "юсь": 898,
      "▁ю": 899,
      "▁зу": 900,
      "▁поли": 901,
      "ніхто": 902,
      "▁об": 903,
      "▁зав": 904,
      "нули": 905,
      "дому": 906,
      "▁таки": 907,
      "▁гор": 908,
      "▁чого": 909,
      "▁воду": 910,
      "▁матір": 911,
      "стя": 912,
      "▁пропа": 913,
      "▁ше": 914,
      "▁розка": 915,
      "було": 916,
      "▁селі": 917,
      "▁серд": 918,
      "▁жить": 919,
      "▁свято": 920,
      "▁плака": 921,
      "▁людей": 922,
      "жуть": 923,
      "▁краю": 924,
      "▁ким": 925,
      "▁цар": 926,
      "▁степу": 927,
      "бя": 928,
      "гна": 929,
      "пере": 930,
      "▁слу": 931,
      "голо": 932,
      "▁нею": 933,
      "кая": 934,
      "несе": 935,
      "дин": 936,
      "вилі": 937,
      "доб": 938,
      "▁чо": 939,
      "▁гру": 940,
      "▁буду": 941,
      "старий": 942,
      "сама": 943,
      "▁мина": 944,
      "▁див": 945,
      "сом": 946,
      "▁дав": 947,
      "▁дале": 948,
      "▁гаю": 949,
      "▁добрі": 950,
      "▁лука": 951,
      "▁благо": 952,
      "дні": 953,
      "джа": 954,
      "ей": 955,
      "лля": 956,
      "спі": 957,
      "тник": 958,
      "цві": 959,
      "▁ско": 960,
      "▁смер": 961,
      "▁пер": 962,
      "▁вра": 963,
      "лим": 964,
      "▁бере": 965,
      "ках": 966,
      "▁поло": 967,
      "▁нами": 968,
      "вим": 969,
      "тесь": 970,
      "▁гля": 971,
      "▁сину": 972,
      "▁стала": 973,
      "мій": 974,
      "▁серде": 975,
      "▁тім": 976,
      "▁святого": 977,
      "▁твої": 978,
      "кругом": 979,
      "она": 980,
      "▁р": 981,
      "нащо": 982,
      "▁поля": 983,
      "▁потім": 984,
      "ницю": 985,
      "▁ок": 986,
      "▁одино": 987,
      "люсь": 988,
      "вин": 989,
      "мою": 990,
      "моли": 991,
      "▁годи": 992,
      "ході": 993,
      "▁ги": 994,
      "▁гра": 995,
      "бира": 996,
      "чать": 997,
      "▁холо": 998,
      "▁пішла": 999,
      "▁одна": 1000,
      "▁молодо": 1001,
      "▁ним": 1002,
      "▁сім": 1003,
      "▁степа": 1004,
      "▁дитину": 1005,
      "▁могили": 1006,
      "▁любить": 1007,
      "▁тяж": 1008,
      "▁кайдани": 1009,
      "ото": 1010,
      "слу": 1011,
      "шно": 1012,
      "тах": 1013,
      "▁зла": 1014,
      "▁бро": 1015,
      "коло": 1016,
      "несли": 1017,
      "▁поба": 1018,
      "вона": 1019,
      "▁захо": 1020,
      "▁заги": 1021,
      "дати": 1022,
      "нулась": 1023,
      "▁дов": 1024,
      "▁долю": 1025,
      "▁хлоп": 1026,
      "тей": 1027,
      "дучи": 1028,
      "▁кві": 1029,
      "▁тихи": 1030,
      "▁бур": 1031,
      "чаль": 1032,
      "▁пани": 1033,
      "▁брат": 1034,
      "▁молоди": 1035,
      "▁спати": 1036,
      "▁слова": 1037,
      "порож": 1038,
      "▁матері": 1039,
      "прий": 1040,
      "ску": 1041,
      "чор": 1042,
      "▁всю": 1043,
      "▁зроби": 1044,
      "тить": 1045,
      "лого": 1046,
      "рино": 1047,
      "ких": 1048,
      "▁іва": 1049,
      "дем": 1050,
      "мої": 1051,
      "мар": 1052,
      "дума": 1053,
      "дуже": 1054,
      "дужа": 1055,
      "▁воля": 1056,
      "▁тита": 1057,
      "▁стане": 1058,
      "ерез": 1059,
      "▁диво": 1060,
      "▁ходила": 1061,
      "▁вітер": 1062,
      "▁сама": 1063,
      "▁ночі": 1064,
      "тяжко": 1065,
      "▁край": 1066,
      "▁бачиш": 1067,
      "свою": 1068,
      "▁дніпро": 1069,
      "▁неділю": 1070,
      "▁окса": 1071,
      "зли": 1072,
      "рма": 1073,
      "▁ск": 1074,
      "лих": 1075,
      "топ": 1076,
      "рами": 1077,
      "▁пока": 1078,
      "вав": 1079,
      "▁тра": 1080,
      "▁долі": 1081,
      "лії": 1082,
      "вет": 1083,
      "вела": 1084,
      "▁воно": 1085,
      "▁мамо": 1086,
      "стала": 1087,
      "▁дур": 1088,
      "▁гаї": 1089,
      "▁молодії": 1090,
      "▁правед": 1091,
      "▁славу": 1092,
      "▁київ": 1093,
      "▁біль": 1094,
      "▁пусти": 1095,
      "▁співає": 1096,
      "▁заспіва": 1097,
      "сміх": 1098,
      "сно": 1099,
      "сле": 1100,
      "тати": 1101,
      "тами": 1102,
      "лить": 1103,
      "нами": 1104,
      "неш": 1105,
      "▁погуля": 1106,
      "▁отак": 1107,
      "▁зак": 1108,
      "▁хи": 1109,
      "теся": 1110,
      "тепер": 1111,
      "лею": 1112,
      "богу": 1113,
      "▁коб": 1114,
      "▁ніч": 1115,
      "▁приві": 1116,
      "▁знала": 1117,
      "жури": 1118,
      "стуся": 1119,
      "▁господи": 1120,
      "▁черво": 1121,
      "благо": 1122,
      "вра": 1123,
      "перед": 1124,
      "спа": 1125,
      "співа": 1126,
      "ян": 1127,
      "▁ря": 1128,
      "▁пле": 1129,
      "▁зи": 1130,
      "▁нез": 1131,
      "кає": 1132,
      "▁пора": 1133,
      "▁нав": 1134,
      "нім": 1135,
      "чима": 1136,
      "▁ули": 1137,
      "лять": 1138,
      "моло": 1139,
      "ріб": 1140,
      "тій": 1141,
      "▁тином": 1142,
      "▁кали": 1143,
      "▁ніби": 1144,
      "▁таке": 1145,
      "▁час": 1146,
      "▁правда": 1147,
      "тойді": 1148,
      "людей": 1149,
      "йну": 1150,
      "ота": 1151,
      "хре": 1152,
      "что": 1153,
      "щу": 1154,
      "ємо": 1155,
      "іде": 1156,
      "тали": 1157,
      "▁дз": 1158,
      "кам": 1159,
      "вають": 1160,
      "вались": 1161,
      "вого": 1162,
      "воно": 1163,
      "ники": 1164,
      "дити": 1165,
      "пом": 1166,
      "чий": 1167,
      "▁дожи": 1168,
      "вих": 1169,
      "вичай": 1170,
      "лій": 1171,
      "зар": 1172,
      "▁жі": 1173,
      "▁тор": 1174,
      "дій": 1175,
      "чали": 1176,
      "будь": 1177,
      "▁світа": 1178,
      "▁рай": 1179,
      "▁сердеш": 1180,
      "▁гай": 1181,
      "ків": 1182,
      "▁криниці": 1183,
      "▁безталан": 1184,
      "▁могилі": 1185,
      "вшись": 1186,
      "▁старого": 1187,
      "блю": 1188,
      "яла": 1189,
      "▁ть": 1190,
      "▁ску": 1191,
      "▁серед": 1192,
      "гово": 1193,
      "небудь": 1194,
      "▁пови": 1195,
      "▁ор": 1196,
      "▁ось": 1197,
      "▁оду": 1198,
      "▁запорож": 1199,
      "нуло": 1200,
      "віки": 1201,
      "▁хри": 1202,
      "рій": 1203,
      "▁что": 1204,
      "хом": 1205,
      "▁гла": 1206,
      "▁гро": 1207,
      "▁був": 1208,
      "▁нікому": 1209,
      "▁одпочи": 1210,
      "окса": 1211,
      "▁царя": 1212,
      "▁золо": 1213,
      "▁крові": 1214,
      "▁господа": 1215,
      "▁правди": 1216,
      "вночі": 1217,
      "▁своїм": 1218,
      "▁жупа": 1219,
      "▁байдуже": 1220,
      "▁дівчина": 1221,
      "вста": 1222,
      "лили": 1223,
      "гор": 1224,
      "точка": 1225,
      "▁нау": 1226,
      "валась": 1227,
      "▁тій": 1228,
      "ким": 1229,
      "поле": 1230,
      "мина": 1231,
      "▁домови": 1232,
      "▁уже": 1233,
      "нький": 1234,
      "вечер": 1235,
      "▁мале": 1236,
      "▁соба": 1237,
      "сила": 1238,
      "▁кара": 1239,
      "▁меня": 1240,
      "пішов": 1241,
      "пила": 1242,
      "▁розп": 1243,
      "▁світу": 1244,
      "▁вечер": 1245,
      "▁красо": 1246,
      "▁проклина": 1247,
      "▁дивиться": 1248,
      "▁тихе": 1249,
      "▁катерина": 1250,
      "▁зустрі": 1251,
      "добре": 1252,
      "грі": 1253,
      "згада": 1254,
      "шком": 1255,
      "▁пта": 1256,
      "▁зга": 1257,
      "тихо": 1258,
      "настуся": 1259,
      "году": 1260,
      "ков": 1261,
      "рили": 1262,
      "▁наді": 1263,
      "дають": 1264,
      "▁йде": 1265,
      "нувся": 1266,
      "вили": 1267,
      "має": 1268,
      "▁хвилі": 1269,
      "рія": 1270,
      "різь": 1271,
      "▁кому": 1272,
      "били": 1273,
      "сидить": 1274,
      "▁бач": 1275,
      "▁ніколи": 1276,
      "▁думи": 1277,
      "▁сльозами": 1278,
      "зом": 1279,
      "▁знов": 1280,
      "▁помоли": 1281,
      "▁великий": 1282,
      "▁єдиний": 1283,
      "нцю": 1284,
      "щі": 1285,
      "▁л": 1286,
      "▁вночі": 1287,
      "▁два": 1288,
      "тині": 1289,
      "кові": 1290,
      "раз": 1291,
      "лове": 1292,
      "▁пома": 1293,
      "рим": 1294,
      "важа": 1295,
      "ніби": 1296,
      "▁тю": 1297,
      "диба": 1298,
      "▁моско": 1299,
      "дале": 1300,
      "мий": 1301,
      "запла": 1302,
      "▁тая": 1303,
      "▁году": 1304,
      "▁годі": 1305,
      "▁топо": 1306,
      "▁грома": 1307,
      "пая": 1308,
      "чем": 1309,
      "▁силу": 1310,
      "▁щось": 1311,
      "▁старі": 1312,
      "▁ходить": 1313,
      "буть": 1314,
      "▁вік": 1315,
      "▁рано": 1316,
      "▁землю": 1317,
      "розі": 1318,
      "▁україни": 1319,
      "черво": 1320,
      "▁весело": 1321,
      "▁жури": 1322,
      "▁шлях": 1323,
      "▁кайданах": 1324,
      "▁палати": 1325,
      "▁трохи": 1326,
      "▁титарів": 1327,
      "вичайне": 1328,
      "блу": 1329,
      "кси": 1330,
      "оста": 1331,
      "тка": 1332,
      "чому": 1333,
      "їха": 1334,
      "▁спі": 1335,
      "▁для": 1336,
      "▁неначе": 1337,
      "ней": 1338,
      "нера": 1339,
      "нець": 1340,
      "▁пожа": 1341,
      "▁понад": 1342,
      "▁полюби": 1343,
      "ваю": 1344,
      "ночку": 1345,
      "▁зако": 1346,
      "даю": 1347,
      "вір": 1348,
      "▁додому": 1349,
      "висо": 1350,
      "▁уми": 1351,
      "▁усміх": 1352,
      "моска": 1353,
      "малі": 1354,
      "доро": 1355,
      "бой": 1356,
      "▁род": 1357,
      "чей": 1358,
      "стри": 1359,
      "▁дія": 1360,
      "став": 1361,
      "пішла": 1362,
      "рять": 1363,
      "буде": 1364,
      "▁знаєш": 1365,
      "▁свого": 1366,
      "▁цві": 1367,
      "▁из": 1368,
      "▁плач": 1369,
      "▁брати": 1370,
      "▁чима": 1371,
      "▁петру": 1372,
      "▁козаць": 1373,
      "▁его": 1374,
      "▁бачив": 1375,
      "▁любила": 1376,
      "▁сирота": 1377,
      "▁долині": 1378,
      "▁молодого": 1379,
      "нє": 1380,
      "рту": 1381,
      "слі": 1382,
      "ум": 1383,
      "чці": 1384,
      "чком": 1385,
      "шки": 1386,
      "▁щи": 1387,
      "либо": 1388,
      "ток": 1389,
      "тому": 1390,
      "кав": 1391,
      "кали": 1392,
      "несла": 1393,
      "▁поді": 1394,
      "▁покри": 1395,
      "▁похили": 1396,
      "рила": 1397,
      "ної": 1398,
      "ному": 1399,
      "вом": 1400,
      "кими": 1401,
      "дам": 1402,
      "дая": 1403,
      "чив": 1404,
      "вить": 1405,
      "літа": 1406,
      "мана": 1407,
      "тів": 1408,
      "▁коси": 1409,
      "▁люд": 1410,
      "▁діво": 1411,
      "▁дібро": 1412,
      "▁стали": 1413,
      "▁теє": 1414,
      "▁ніхто": 1415,
      "▁радо": 1416,
      "сотник": 1417,
      "▁піду": 1418,
      "ших": 1419,
      "▁будем": 1420,
      "тять": 1421,
      "▁печаль": 1422,
      "▁бачить": 1423,
      "свої": 1424,
      "▁батька": 1425,
      "тихе": 1426,
      "▁генера": 1427,
      "▁голуб": 1428,
      "цілує": 1429,
      "ійшлись": 1430,
      "джу": 1431,
      "зни": 1432,
      "обі": 1433,
      "пле": 1434,
      "яна": 1435,
      "єї": 1436,
      "▁ся": 1437,
      "тав": 1438,
      "горі": 1439,
      "госпо": 1440,
      "▁неси": 1441,
      "▁неба": 1442,
      "неє": 1443,
      "▁пове": 1444,
      "вами": 1445,
      "сяць": 1446,
      "ниця": 1447,
      "кину": 1448,
      "▁ожи": 1449,
      "диву": 1450,
      "ляться": 1451,
      "гає": 1452,
      "гами": 1453,
      "леньку": 1454,
      "▁кі": 1455,
      "▁коха": 1456,
      "сенько": 1457,
      "бать": 1458,
      "хала": 1459,
      "▁мило": 1460,
      "меж": 1461,
      "▁чужі": 1462,
      "▁гад": 1463,
      "▁цу": 1464,
      "▁добра": 1465,
      "▁співають": 1466,
      "▁часом": 1467,
      "▁самого": 1468,
      "▁гуляє": 1469,
      "▁байст": 1470,
      "▁сестри": 1471,
      "▁діток": 1472,
      "▁вдови": 1473,
      "▁садочок": 1474,
      "▁кругом": 1475,
      "▁фа": 1476,
      "▁сердце": 1477,
      "▁хлопці": 1478,
      "дна": 1479,
      "дво": 1480,
      "ов": 1481,
      "оце": 1482,
      "сн": 1483,
      "ци": 1484,
      "через": 1485,
      "▁льо": 1486,
      "рони": 1487,
      "роди": 1488,
      "кати": 1489,
      "▁пом": 1490,
      "▁пові": 1491,
      "▁пози": 1492,
      "рину": 1493,
      "вана": 1494,
      "▁ота": 1495,
      "▁заходи": 1496,
      "▁ін": 1497,
      "посто": 1498,
      "подиви": 1499,
      "давно": 1500,
      "віт": 1501,
      "вила": 1502,
      "▁яко": 1503,
      "▁яру": 1504,
      "ліє": 1505,
      "▁усі": 1506,
      "ляка": 1507,
      "мось": 1508,
      "мати": 1509,
      "тель": 1510,
      "ледве": 1511,
      "ріє": 1512,
      "▁товари": 1513,
      "▁гі": 1514,
      "▁гре": 1515,
      "▁глу": 1516,
      "▁воз": 1517,
      "▁маю": 1518,
      "пан": 1519,
      "стра": 1520,
      "▁карі": 1521,
      "чає": 1522,
      "▁дітей": 1523,
      "▁стар": 1524,
      "ережа": 1525,
      "▁ходи": 1526,
      "▁рас": 1527,
      "▁раю": 1528,
      "широ": 1529,
      "▁лише": 1530,
      "▁плакала": 1531,
      "скажи": 1532,
      "▁ночу": 1533,
      "▁тур": 1534,
      "▁єси": 1535,
      "▁землею": 1536,
      "▁серцем": 1537,
      "▁сторо": 1538,
      "одна": 1539,
      "▁сонця": 1540,
      "▁богда": 1541,
      "▁правду": 1542,
      "▁сироти": 1543,
      "▁сиротою": 1544,
      "▁палатах": 1545,
      "▁горою": 1546,
      "▁робити": 1547,
      "▁синє": 1548,
      "▁кеса": 1549,
      "отож": 1550,
      "▁довго": 1551,
      "▁тюр": 1552,
      "всі": 1553,
      "дер": 1554,
      "кли": 1555,
      "нна": 1556,
      "нке": 1557,
      "сльо": 1558,
      "тни": 1559,
      "шся": 1560,
      "яв": 1561,
      "▁вся": 1562,
      "▁вчи": 1563,
      "▁вмі": 1564,
      "▁вкра": 1565,
      "тать": 1566,
      "така": 1567,
      "▁зі": 1568,
      "рою": 1569,
      "несу": 1570,
      "▁поко": 1571,
      "вало": 1572,
      "▁тер": 1573,
      "▁обо": 1574,
      "▁оце": 1575,
      "▁іде": 1576,
      "вид": 1577,
      "мах": 1578,
      "▁хвали": 1579,
      "теє": 1580,
      "дочку": 1581,
      "вен": 1582,
      "стре": 1583,
      "▁просто": 1584,
      "▁сидить": 1585,
      "чати": 1586,
      "▁стара": 1587,
      "▁розі": 1588,
      "▁пару": 1589,
      "▁мир": 1590,
      "▁диву": 1591,
      "▁душі": 1592,
      "▁вір": 1593,
      "▁знать": 1594,
      "▁знають": 1595,
      "▁цер": 1596,
      "▁святи": 1597,
      "▁святий": 1598,
      "▁святая": 1599,
      "▁нишком": 1600,
      "▁друга": 1601,
      "▁киє": 1602,
      "▁твоя": 1603,
      "▁суму": 1604,
      "▁спала": 1605,
      "▁верну": 1606,
      "▁господь": 1607,
      "царя": 1608,
      "зеле": 1609,
      "▁своїх": 1610,
      "▁страшно": 1611,
      "▁марко": 1612,
      "▁місяць": 1613,
      "▁дорогу": 1614,
      "треба": 1615,
      "чора": 1616,
      "▁згадаю": 1617,
      "співу": 1618,
      "▁вранці": 1619,
      "▁більш": 1620,
      "▁кобзар": 1621,
      "дро": 1622,
      "дра": 1623,
      "ем": 1624,
      "жно": 1625,
      "нний": 1626,
      "об": 1627,
      "один": 1628,
      "ски": 1629,
      "фі": 1630,
      "ью": 1631,
      "яли": 1632,
      "яні": 1633,
      "яний": 1634,
      "▁сні": 1635,
      "▁всь": 1636,
      "▁здоро": 1637,
      "торі": 1638,
      "кан": 1639,
      "ненько": 1640,
      "нечко": 1641,
      "▁покло": 1642,
      "▁наша": 1643,
      "ноді": 1644,
      "нічого": 1645,
      "▁ог": 1646,
      "▁заро": 1647,
      "▁заба": 1648,
      "чим": 1649,
      "чили": 1650,
      "▁дома": 1651,
      "▁догля": 1652,
      "▁яр": 1653,
      "▁ярина": 1654,
      "▁ум": 1655,
      "моє": 1656,
      "ганя": 1657,
      "дов": 1658,
      "дова": 1659,
      "дую": 1660,
      "▁гості": 1661,
      "▁грає": 1662,
      "▁глибо": 1663,
      "▁мало": 1664,
      "сили": 1665,
      "▁просить": 1666,
      "▁бар": 1667,
      "пили": 1668,
      "пить": 1669,
      "▁розко": 1670,
      "тут": 1671,
      "▁мики": 1672,
      "▁ходили": 1673,
      "бур": 1674,
      "▁раї": 1675,
      "чуть": 1676,
      "ший": 1677,
      "▁вами": 1678,
      "▁лиха": 1679,
      "▁тойді": 1680,
      "дьми": 1681,
      "▁спать": 1682,
      "твої": 1683,
      "▁осталось": 1684,
      "▁хмари": 1685,
      "хіба": 1686,
      "▁положи": 1687,
      "▁серденько": 1688,
      "▁тихий": 1689,
      "слепая": 1690,
      "спаси": 1691,
      "вечері": 1692,
      "бля": 1693,
      "где": 1694,
      "дне": 1695,
      "ешь": 1696,
      "лго": 1697,
      "лся": 1698,
      "нце": 1699,
      "ось": 1700,
      "плю": 1701,
      "пря": 1702,
      "рти": 1703,
      "рку": 1704,
      "єю": 1705,
      "▁ці": 1706,
      "▁сни": 1707,
      "▁пса": 1708,
      "▁зій": 1709,
      "▁невесе": 1710,
      "кабря": 1711,
      "нез": 1712,
      "▁почу": 1713,
      "▁погля": 1714,
      "еру": 1715,
      "нися": 1716,
      "▁твій": 1717,
      "▁зай": 1718,
      "▁зари": 1719,
      "▁заре": 1720,
      "▁іноді": 1721,
      "понад": 1722,
      "▁мол": 1723,
      "▁моря": 1724,
      "любо": 1725,
      "чина": 1726,
      "дет": 1727,
      "зать": 1728,
      "▁хлі": 1729,
      "тече": 1730,
      "боже": 1731,
      "▁год": 1732,
      "▁бож": 1733,
      "▁богом": 1734,
      "льни": 1735,
      "▁людьми": 1736,
      "пає": 1737,
      "▁соро": 1738,
      "▁апосто": 1739,
      "сиро": 1740,
      "▁кажуть": 1741,
      "▁сивий": 1742,
      "хаме": 1743,
      "стила": 1744,
      "▁світом": 1745,
      "▁раді": 1746,
      "мець": 1747,
      "▁знали": 1748,
      "▁чума": 1749,
      "▁вес": 1750,
      "▁весі": 1751,
      "▁пішов": 1752,
      "▁ци": 1753,
      "таке": 1754,
      "стоїть": 1755,
      "тября": 1756,
      "▁друго": 1757,
      "▁дружи": 1758,
      "▁тую": 1759,
      "ватись": 1760,
      "▁козаки": 1761,
      "▁стоїть": 1762,
      "▁мовчки": 1763,
      "▁пуска": 1764,
      "▁чорні": 1765,
      "▁могила": 1766,
      "▁своїй": 1767,
      "▁спить": 1768,
      "▁взяли": 1769,
      "трохи": 1770,
      "козаць": 1771,
      "▁робить": 1772,
      "▁гетьман": 1773,
      "▁садочку": 1774,
      "▁виглядає": 1775,
      "▁довелося": 1776,
      "▁годину": 1777,
      "ходім": 1778,
      "▁всюди": 1779,
      "▁оксано": 1780,
      "▁запорожці": 1781,
      "кандиба": 1782,
      "ані": 1783,
      "гда": 1784,
      "дрі": 1785,
      "дня": 1786,
      "йст": 1787,
      "йдем": 1788,
      "мне": 1789,
      "нге": 1790,
      "пта": 1791,
      "рду": 1792,
      "сний": 1793,
      "тки": 1794,
      "тром": 1795,
      "усі": 1796,
      "цу": 1797,
      "юся": 1798,
      "ября": 1799,
      "▁свет": 1800,
      "▁вз": 1801,
      "тар": 1802,
      "тають": 1803,
      "▁дво": 1804,
      "нав": 1805,
      "тої": 1806,
      "▁поса": 1807,
      "▁наві": 1808,
      "▁наші": 1809,
      "нок": 1810,
      "нові": 1811,
      "▁обі": 1812,
      "▁заб": 1813,
      "пові": 1814,
      "пога": 1815,
      "▁йдучи": 1816,
      "мим": 1817,
      "▁дорозі": 1818,
      "▁яг": 1819,
      "▁ярино": 1820,
      "▁упо": 1821,
      "▁уби": 1822,
      "мом": 1823,
      "заре": 1824,
      "дови": 1825,
      "хоть": 1826,
      "ходить": 1827,
      "▁божа": 1828,
      "весь": 1829,
      "▁любі": 1830,
      "пав": 1831,
      "▁сонечко": 1832,
      "▁проро": 1833,
      "чала": 1834,
      "▁діву": 1835,
      "▁тебя": 1836,
      "▁розпи": 1837,
      "▁привела": 1838,
      "▁свій": 1839,
      "▁ради": 1840,
      "▁чув": 1841,
      "▁чує": 1842,
      "▁чуть": 1843,
      "▁давно": 1844,
      "▁вар": 1845,
      "▁их": 1846,
      "стом": 1847,
      "▁ноги": 1848,
      "▁руках": 1849,
      "петро": 1850,
      "▁стре": 1851,
      "▁козаками": 1852,
      "стуть": 1853,
      "щий": 1854,
      "брати": 1855,
      "дається": 1856,
      "▁сусі": 1857,
      "▁дитино": 1858,
      "▁крова": 1859,
      "▁шинку": 1860,
      "▁дніп": 1861,
      "йтеся": 1862,
      "▁ляха": 1863,
      "▁сміється": 1864,
      "▁небого": 1865,
      "▁москаля": 1866,
      "отаке": 1867,
      "немає": 1868,
      "▁шляху": 1869,
      "▁рік": 1870,
      "▁дороги": 1871,
      "▁гріш": 1872,
      "▁шукати": 1873,
      "▁широкий": 1874,
      "▁багатий": 1875,
      "▁чужому": 1876,
      "дівча": 1877,
      "кров": 1878,
      "▁плакать": 1879,
      "▁дивлюся": 1880,
      "▁одинокий": 1881,
      "благосло": 1882,
      "оксана": 1883,
      "ловей": 1884,
      "▁москов": 1885,
      "▁титарівна": 1886,
      "двох": 1887,
      "▁лишень": 1888,
      "гло": 1889,
      "гри": 1890,
      "грає": 1891,
      "звичайне": 1892,
      "мно": 1893,
      "нн": 1894,
      "нко": 1895,
      "нну": 1896,
      "ох": 1897,
      "оси": 1898,
      "пса": 1899,
      "сля": 1900,
      "усе": 1901,
      "їну": 1902,
      "▁ща": 1903,
      "▁сти": 1904,
      "▁вку": 1905,
      "лами": 1906,
      "тин": 1907,
      "▁мер": 1908,
      "тьми": 1909,
      "нам": 1910,
      "▁небе": 1911,
      "рано": 1912,
      "нем": 1913,
      "▁побі": 1914,
      "рих": 1915,
      "▁напо": 1916,
      "▁напи": 1917,
      "ського": 1918,
      "нить": 1919,
      "▁запали": 1920,
      "▁моей": 1921,
      "демо": 1922,
      "вії": 1923,
      "вив": 1924,
      "ліла": 1925,
      "▁уночі": 1926,
      "зали": 1927,
      "мале": 1928,
      "гай": 1929,
      "бор": 1930,
      "рії": 1931,
      "▁тому": 1932,
      "▁кле": 1933,
      "▁боці": 1934,
      "▁роди": 1935,
      "ства": 1936,
      "▁соловей": 1937,
      "сити": 1938,
      "▁сибі": 1939,
      "част": 1940,
      "▁діж": 1941,
      "▁діла": 1942,
      "стали": 1943,
      "мія": 1944,
      "▁розійшлись": 1945,
      "сам": 1946,
      "▁присни": 1947,
      "▁знай": 1948,
      "▁пішли": 1949,
      "краде": 1950,
      "▁серці": 1951,
      "▁дай": 1952,
      "▁святую": 1953,
      "▁бед": 1954,
      "▁будеш": 1955,
      "▁молодою": 1956,
      "▁молодая": 1957,
      "▁украй": 1958,
      "▁криницю": 1959,
      "▁леда": 1960,
      "▁твою": 1961,
      "▁твори": 1962,
      "▁дніпра": 1963,
      "мерла": 1964,
      "▁ляхи": 1965,
      "стей": 1966,
      "сердеш": 1967,
      "▁небога": 1968,
      "▁рим": 1969,
      "▁поховали": 1970,
      "▁діточок": 1971,
      "▁чужій": 1972,
      "▁наймичка": 1973,
      "правді": 1974,
      "▁довелось": 1975,
      "▁сердца": 1976,
      "ходімо": 1977,
      "▁брови": 1978,
      "▁загину": 1979,
      "▁погуляти": 1980,
      "▁улиці": 1981,
      "▁дзвони": 1982,
      "бере": 1983,
      "вне": 1984,
      "грома": 1985,
      "для": 1986,
      "зно": 1987,
      "кля": 1988,
      "они": 1989,
      "сій": 1990,
      "сню": 1991,
      "ього": 1992,
      "ями": 1993,
      "▁све": 1994,
      "▁вми": 1995,
      "лиця": 1996,
      "лицю": 1997,
      "▁дя": 1998,
      "томи": 1999,
      "▁нехай": 2000,
      "рак": 2001,
      "кате": 2002,
      "кайда": 2003,
      "▁пол": 2004,
      "▁покої": 2005,
      "▁наз": 2006,
      "вал": 2007,
      "вався": 2008,
      "нів": 2009,
      "▁огне": 2010,
      "▁загу": 2011,
      "▁засту": 2012,
      "▁зажури": 2013,
      "▁мой": 2014,
      "дами": 2015,
      "▁утопи": 2016,
      "марія": 2017,
      "рець": 2018,
      "дур": 2019,
      "тія": 2020,
      "тіли": 2021,
      "▁кла": 2022,
      "▁кля": 2023,
      "▁кон": 2024,
      "▁комо": 2025,
      "▁боя": 2026,
      "▁боло": 2027,
      "▁гну": 2028,
      "льки": 2029,
      "▁люту": 2030,
      "пають": 2031,
      "діли": 2032,
      "діла": 2033,
      "▁анге": 2034,
      "▁буд": 2035,
      "▁будуть": 2036,
      "стара": 2037,
      "бага": 2038,
      "▁став": 2039,
      "▁стати": 2040,
      "хає": 2041,
      "▁розби": 2042,
      "▁пам": 2043,
      "була": 2044,
      "▁віє": 2045,
      "▁якби": 2046,
      "▁знати": 2047,
      "▁одно": 2048
    },
    "merges": [
      [
        "▁",
        "с"
      ],
      [
        "▁",
        "н"
      ],
      [
        "▁",
        "п"
      ],
      [
        "▁",
        "в"
      ],
      [
        "т",
        "а"
      ],
      [
        "л",
        "и"
      ],
      [
        "л",
        "а"
      ],
      [
        "▁",
        "д"
      ],
      [
        "▁",
        "з"
      ],
      [
        "т",
        "и"
      ],
      [
        "▁",
        "м"
      ],
      [
        "р",
        "о"
      ],
      [
        "т",
        "ь"
      ],
      [
        "▁",
        "б"
      ],
      [
        "н",
        "а"
      ],
      [
        "г",
        "о"
      ],
      [
        "к",
        "о"
      ],
      [
        "т",
        "о"
      ],
      [
        "▁н",
        "е"
      ],
      [
        "р",
        "а"
      ],
      [
        "к",
        "а"
      ],
      [
        "н",
        "е"
      ],
      [
        "л",
        "о"
      ],
      [
        "▁п",
        "о"
      ],
      [
        "р",
        "и"
      ],
      [
        "▁н",
        "а"
      ],
      [
        "в",
        "а"
      ],
      [
        "с",
        "ь"
      ],
      [
        "е",
        "р"
      ],
      [
        "н",
        "о"
      ],
      [
        "с",
        "я"
      ],
      [
        "в",
        "о"
      ],
      [
        "н",
        "и"
      ],
      [
        "н",
        "і"
      ],
      [
        "▁",
        "т"
      ],
      [
        "к",
        "и"
      ],
      [
        "▁",
        "о"
      ],
      [
        "▁з",
        "а"
      ],
      [
        "д",
        "и"
      ],
      [
        "▁",
        "і"
      ],
      [
        "п",
        "о"
      ],
      [
        "▁м",
        "о"
      ],
      [
        "д",
        "а"
      ],
      [
        "л",
        "ю"
      ],
      [
        "▁",
        "й"
      ],
      [
        "ч",
        "и"
      ],
      [
        "м",
        "и"
      ],
      [
        "д",
        "е"
      ],
      [
        "н",
        "у"
      ],
      [
        "в",
        "і"
      ],
      [
        "▁д",
        "о"
      ],
      [
        "в",
        "и"
      ],
      [
        "▁",
        "я"
      ],
      [
        "л",
        "і"
      ],
      [
        "▁",
        "у"
      ],
      [
        "л",
        "я"
      ],
      [
        "м",
        "о"
      ],
      [
        "з",
        "а"
      ],
      [
        "м",
        "а"
      ],
      [
        "▁",
        "х"
      ],
      [
        "р",
        "е"
      ],
      [
        "щ",
        "о"
      ],
      [
        "г",
        "а"
      ],
      [
        "т",
        "е"
      ],
      [
        "ж",
        "е"
      ],
      [
        "л",
        "е"
      ],
      [
        "р",
        "у"
      ],
      [
        "д",
        "о"
      ],
      [
        "▁",
        "та"
      ],
      [
        "к",
        "у"
      ],
      [
        "б",
        "о"
      ],
      [
        "р",
        "і"
      ],
      [
        "д",
        "у"
      ],
      [
        "т",
        "і"
      ],
      [
        "▁",
        "ж"
      ],
      [
        "▁",
        "го"
      ],
      [
        "▁",
        "ч"
      ],
      [
        "▁",
        "то"
      ],
      [
        "▁",
        "к"
      ],
      [
        "▁",
        "ко"
      ],
      [
        "х",
        "о"
      ],
      [
        "н",
        "ь"
      ],
      [
        "▁б",
        "о"
      ],
      [
        "▁",
        "г"
      ],
      [
        "в",
        "е"
      ],
      [
        "б",
        "и"
      ],
      [
        "▁в",
        "о"
      ],
      [
        "л",
        "ь"
      ],
      [
        "▁м",
        "а"
      ],
      [
        "▁",
        "лю"
      ],
      [
        "м",
        "у"
      ],
      [
        "▁",
        "ти"
      ],
      [
        "п",
        "а"
      ],
      [
        "с",
        "е"
      ],
      [
        "▁",
        "ро"
      ],
      [
        "ч",
        "е"
      ],
      [
        "с",
        "т"
      ],
      [
        "д",
        "і"
      ],
      [
        "▁с",
        "о"
      ],
      [
        "▁",
        "а"
      ],
      [
        "с",
        "и"
      ],
      [
        "\n",
        "\n"
      ],
      [
        "▁в",
        "и"
      ],
      [
        "▁",
        "ка"
      ],
      [
        "▁б",
        "у"
      ],
      [
        "▁п",
        "ро"
      ],
      [
        "ть",
        "ся"
      ],
      [
        "▁с",
        "и"
      ],
      [
        "ч",
        "а"
      ],
      [
        "о",
        "го"
      ],
      [
        "▁д",
        "і"
      ],
      [
        "л",
        "у"
      ],
      [
        "с",
        "та"
      ],
      [
        "▁б",
        "а"
      ],
      [
        "▁м",
        "е"
      ],
      [
        "▁",
        "що"
      ],
      [
        "п",
        "і"
      ],
      [
        "б",
        "і"
      ],
      [
        "ж",
        "и"
      ],
      [
        "▁",
        "ш"
      ],
      [
        "б",
        "а"
      ],
      [
        "▁с",
        "та"
      ],
      [
        "н",
        "я"
      ],
      [
        "п",
        "и"
      ],
      [
        "ю",
        "ть"
      ],
      [
        "▁т",
        "е"
      ],
      [
        "в",
        "у"
      ],
      [
        "б",
        "е"
      ],
      [
        "ц",
        "і"
      ],
      [
        "х",
        "а"
      ],
      [
        "я",
        "к"
      ],
      [
        "м",
        "і"
      ],
      [
        "ц",
        "е"
      ],
      [
        "ер",
        "е"
      ],
      [
        "▁ро",
        "з"
      ],
      [
        "г",
        "и"
      ],
      [
        "с",
        "а"
      ],
      [
        "т",
        "у"
      ],
      [
        "▁п",
        "а"
      ],
      [
        "▁н",
        "і"
      ],
      [
        "▁п",
        "ри"
      ],
      [
        "ли",
        "сь"
      ],
      [
        "р",
        "я"
      ],
      [
        "▁м",
        "и"
      ],
      [
        "▁д",
        "и"
      ],
      [
        "▁х",
        "о"
      ],
      [
        "і",
        "й"
      ],
      [
        "▁д",
        "у"
      ],
      [
        "б",
        "у"
      ],
      [
        "щ",
        "е"
      ],
      [
        "ла",
        "сь"
      ],
      [
        "▁в",
        "і"
      ],
      [
        "с",
        "і"
      ],
      [
        "с",
        "ти"
      ],
      [
        "▁с",
        "е"
      ],
      [
        "▁с",
        "ві"
      ],
      [
        "в",
        "я"
      ],
      [
        "▁",
        "ра"
      ],
      [
        "▁я",
        "к"
      ],
      [
        "▁",
        "ї"
      ],
      [
        "м",
        "е"
      ],
      [
        "▁з",
        "на"
      ],
      [
        "ч",
        "і"
      ],
      [
        "▁с",
        "а"
      ],
      [
        "с",
        "о"
      ],
      [
        "▁ч",
        "у"
      ],
      [
        "ч",
        "у"
      ],
      [
        "▁в",
        "е"
      ],
      [
        "ни",
        "й"
      ],
      [
        "г",
        "у"
      ],
      [
        "▁п",
        "і"
      ],
      [
        "к",
        "ра"
      ],
      [
        "▁с",
        "ер"
      ],
      [
        "▁о",
        "д"
      ],
      [
        "▁д",
        "а"
      ],
      [
        "ж",
        "а"
      ],
      [
        "▁х",
        "а"
      ],
      [
        "ш",
        "и"
      ],
      [
        "▁",
        "га"
      ],
      [
        "▁в",
        "а"
      ],
      [
        "▁",
        "ли"
      ],
      [
        "ш",
        "е"
      ],
      [
        "▁с",
        "во"
      ],
      [
        "▁д",
        "е"
      ],
      [
        "п",
        "ро"
      ],
      [
        "мо",
        "в"
      ],
      [
        "з",
        "и"
      ],
      [
        "\n\n",
        "\n"
      ],
      [
        "▁ж",
        "и"
      ],
      [
        "▁",
        "ц"
      ],
      [
        "▁",
        "и"
      ],
      [
        "ки",
        "й"
      ],
      [
        "х",
        "и"
      ],
      [
        "▁т",
        "і"
      ],
      [
        "▁с",
        "вя"
      ],
      [
        "та",
        "к"
      ],
      [
        "ва",
        "ли"
      ],
      [
        "▁п",
        "ла"
      ],
      [
        "▁та",
        "к"
      ],
      [
        "с",
        "ка"
      ],
      [
        "▁й",
        "ого"
      ],
      [
        "▁до",
        "б"
      ],
      [
        "с",
        "то"
      ],
      [
        "▁со",
        "бі"
      ],
      [
        "▁лю",
        "де"
      ],
      [
        "▁з",
        "е"
      ],
      [
        "▁в",
        "се"
      ],
      [
        "▁б",
        "е"
      ],
      [
        "▁н",
        "о"
      ],
      [
        "▁бу",
        "де"
      ],
      [
        "▁б",
        "ра"
      ],
      [
        "ло",
        "сь"
      ],
      [
        "▁ма",
        "ти"
      ],
      [
        "▁ме",
        "не"
      ],
      [
        "т",
        "я"
      ],
      [
        "▁",
        "чи"
      ],
      [
        "▁мо",
        "ло"
      ],
      [
        "к",
        "і"
      ],
      [
        "о",
        "р"
      ],
      [
        "в",
        "ся"
      ],
      [
        "▁",
        "лі"
      ],
      [
        "▁",
        "ще"
      ],
      [
        "нь",
        "ко"
      ],
      [
        "ль",
        "о"
      ],
      [
        "▁",
        "ру"
      ],
      [
        "п",
        "у"
      ],
      [
        "ж",
        "у"
      ],
      [
        "▁к",
        "ра"
      ],
      [
        "▁н",
        "и"
      ],
      [
        "▁п",
        "е"
      ],
      [
        "що",
        "б"
      ],
      [
        "▁у",
        "кра"
      ],
      [
        "с",
        "ла"
      ],
      [
        "п",
        "е"
      ],
      [
        "с",
        "у"
      ],
      [
        "с",
        "по"
      ],
      [
        "ц",
        "я"
      ],
      [
        "▁д",
        "ру"
      ],
      [
        "ти",
        "й"
      ],
      [
        "▁п",
        "ра"
      ],
      [
        "▁ме",
        "ні"
      ],
      [
        "▁с",
        "і"
      ],
      [
        "▁с",
        "ла"
      ],
      [
        "ри",
        "й"
      ],
      [
        "▁т",
        "у"
      ],
      [
        "ц",
        "ь"
      ],
      [
        "▁то",
        "й"
      ],
      [
        "пі",
        "ва"
      ],
      [
        "▁",
        "ки"
      ],
      [
        "ч",
        "ку"
      ],
      [
        "ш",
        "а"
      ],
      [
        "▁",
        "є"
      ],
      [
        "▁зе",
        "м"
      ],
      [
        "▁",
        "ку"
      ],
      [
        "д",
        "я"
      ],
      [
        "▁п",
        "и"
      ],
      [
        "▁в",
        "же"
      ],
      [
        "▁к",
        "ри"
      ],
      [
        "ди",
        "ть"
      ],
      [
        "▁мо",
        "я"
      ],
      [
        "т",
        "ер"
      ],
      [
        "▁сер",
        "це"
      ],
      [
        "ч",
        "ого"
      ],
      [
        "є",
        "ш"
      ],
      [
        "▁с",
        "т"
      ],
      [
        "ва",
        "ти"
      ],
      [
        "▁ко",
        "за"
      ],
      [
        "ро",
        "з"
      ],
      [
        "▁б",
        "і"
      ],
      [
        "▁сві",
        "ті"
      ],
      [
        "д",
        "ь"
      ],
      [
        "ко",
        "м"
      ],
      [
        "но",
        "ю"
      ],
      [
        "▁г",
        "у"
      ],
      [
        "о",
        "му"
      ],
      [
        "ко",
        "го"
      ],
      [
        "▁м",
        "ій"
      ],
      [
        "ш",
        "у"
      ],
      [
        "▁с",
        "то"
      ],
      [
        "▁те",
        "бе"
      ],
      [
        "ви",
        "й"
      ],
      [
        "▁",
        "ле"
      ],
      [
        "ла",
        "ся"
      ],
      [
        "▁бе",
        "з"
      ],
      [
        "▁п",
        "ере"
      ],
      [
        "ш",
        "ла"
      ],
      [
        "▁б",
        "и"
      ],
      [
        "ст",
        "у"
      ],
      [
        "▁т",
        "во"
      ],
      [
        "▁ді",
        "в"
      ],
      [
        "▁укра",
        "ї"
      ],
      [
        "з",
        "я"
      ],
      [
        "п",
        "ла"
      ],
      [
        "щ",
        "и"
      ],
      [
        "ха",
        "й"
      ],
      [
        "▁мо",
        "в"
      ],
      [
        "б",
        "ра"
      ],
      [
        "о",
        "к"
      ],
      [
        "да",
        "є"
      ],
      [
        "ч",
        "ка"
      ],
      [
        "▁",
        "е"
      ],
      [
        "ва",
        "ла"
      ],
      [
        "▁",
        "ла"
      ],
      [
        "ли",
        "ся"
      ],
      [
        "на",
        "че"
      ],
      [
        "г",
        "ля"
      ],
      [
        "▁п",
        "у"
      ],
      [
        "▁ц",
        "а"
      ],
      [
        "в",
        "ер"
      ],
      [
        "ш",
        "о"
      ],
      [
        "▁с",
        "те"
      ],
      [
        "▁с",
        "у"
      ],
      [
        "▁с",
        "па"
      ],
      [
        "▁с",
        "льо"
      ],
      [
        "ти",
        "сь"
      ],
      [
        "▁на",
        "й"
      ],
      [
        "▁ди",
        "ти"
      ],
      [
        "▁на",
        "с"
      ],
      [
        "но",
        "м"
      ],
      [
        "ц",
        "ю"
      ],
      [
        "▁",
        "же"
      ],
      [
        "▁з",
        "о"
      ],
      [
        "бо",
        "ю"
      ],
      [
        "▁бо",
        "га"
      ],
      [
        "й",
        "да"
      ],
      [
        "к",
        "ри"
      ],
      [
        "▁с",
        "ка"
      ],
      [
        "▁в",
        "ер"
      ],
      [
        "▁ч",
        "ор"
      ],
      [
        "о",
        "д"
      ],
      [
        "ко",
        "ли"
      ],
      [
        "в",
        "сь"
      ],
      [
        "х",
        "то"
      ],
      [
        "щ",
        "а"
      ],
      [
        "▁м",
        "у"
      ],
      [
        "▁ж",
        "а"
      ],
      [
        "▁ї",
        "х"
      ],
      [
        "▁по",
        "ки"
      ],
      [
        "ди",
        "ви"
      ],
      [
        "▁ба",
        "чи"
      ],
      [
        "▁на",
        "д"
      ],
      [
        "но",
        "го"
      ],
      [
        "ль",
        "ко"
      ],
      [
        "с",
        "ть"
      ],
      [
        "п",
        "ер"
      ],
      [
        "▁с",
        "ло"
      ],
      [
        "▁мо",
        "ги"
      ],
      [
        "▁ві",
        "н"
      ],
      [
        "п",
        "ри"
      ],
      [
        "▁к",
        "ро"
      ],
      [
        "▁со",
        "н"
      ],
      [
        "▁ш",
        "и"
      ],
      [
        "а",
        "ж"
      ],
      [
        "ш",
        "ли"
      ],
      [
        "з",
        "о"
      ],
      [
        "▁не",
        "ма"
      ],
      [
        "▁бо",
        "же"
      ],
      [
        "ли",
        "й"
      ],
      [
        "▁лю",
        "би"
      ],
      [
        "та",
        "є"
      ],
      [
        "▁пі",
        "д"
      ],
      [
        "ж",
        "ко"
      ],
      [
        "с",
        "во"
      ],
      [
        "с",
        "вя"
      ],
      [
        "ч",
        "ер"
      ],
      [
        "▁мо",
        "ре"
      ],
      [
        "▁го",
        "спо"
      ],
      [
        "▁то",
        "го"
      ],
      [
        "▁ба",
        "ть"
      ],
      [
        "к",
        "е"
      ],
      [
        "▁з",
        "но"
      ],
      [
        "го",
        "м"
      ],
      [
        "но",
        "й"
      ],
      [
        "▁т",
        "я"
      ],
      [
        "по",
        "ки"
      ],
      [
        "▁с",
        "піва"
      ],
      [
        "то",
        "го"
      ],
      [
        "▁не",
        "во"
      ],
      [
        "га",
        "да"
      ],
      [
        "▁д",
        "ні"
      ],
      [
        "ко",
        "ю"
      ],
      [
        "▁о",
        "т"
      ],
      [
        "й",
        "те"
      ],
      [
        "не",
        "наче"
      ],
      [
        "▁ч",
        "а"
      ],
      [
        "н",
        "ю"
      ],
      [
        "ка",
        "ми"
      ],
      [
        "▁ве",
        "се"
      ],
      [
        "▁ха",
        "ти"
      ],
      [
        "м",
        "ер"
      ],
      [
        "ну",
        "в"
      ],
      [
        "ду",
        "ть"
      ],
      [
        "▁бо",
        "г"
      ],
      [
        "до",
        "ю"
      ],
      [
        "ц",
        "а"
      ],
      [
        "▁с",
        "по"
      ],
      [
        "ро",
        "м"
      ],
      [
        "▁мо",
        "ї"
      ],
      [
        "▁пра",
        "в"
      ],
      [
        "з",
        "е"
      ],
      [
        "не",
        "хай"
      ],
      [
        "▁ли",
        "хо"
      ],
      [
        "▁п",
        "ре"
      ],
      [
        "та",
        "ла"
      ],
      [
        "ра",
        "є"
      ],
      [
        "▁го",
        "ло"
      ],
      [
        "в",
        "но"
      ],
      [
        "▁",
        "ля"
      ],
      [
        "то",
        "м"
      ],
      [
        "ди",
        "ла"
      ],
      [
        "▁ти",
        "хо"
      ],
      [
        "▁",
        "лу"
      ],
      [
        "ти",
        "х"
      ],
      [
        "▁б",
        "ла"
      ],
      [
        "п",
        "ра"
      ],
      [
        "с",
        "те"
      ],
      [
        "ч",
        "ки"
      ],
      [
        "ш",
        "і"
      ],
      [
        "▁о",
        "н"
      ],
      [
        "▁і",
        "з"
      ],
      [
        "▁сво",
        "ї"
      ],
      [
        "з",
        "у"
      ],
      [
        "з",
        "ь"
      ],
      [
        "с",
        "ли"
      ],
      [
        "с",
        "ер"
      ],
      [
        "на",
        "д"
      ],
      [
        "на",
        "я"
      ],
      [
        "▁за",
        "с"
      ],
      [
        "ж",
        "і"
      ],
      [
        "т",
        "ру"
      ],
      [
        "ва",
        "ть"
      ],
      [
        "▁си",
        "ро"
      ],
      [
        "о",
        "й"
      ],
      [
        "с",
        "ті"
      ],
      [
        "є",
        "ться"
      ],
      [
        "ко",
        "му"
      ],
      [
        "▁по",
        "ле"
      ],
      [
        "▁та",
        "м"
      ],
      [
        "▁дів",
        "ча"
      ],
      [
        "шо",
        "в"
      ],
      [
        "т",
        "во"
      ],
      [
        "▁",
        "ре"
      ],
      [
        "▁по",
        "мо"
      ],
      [
        "▁ді",
        "ти"
      ],
      [
        "є",
        "м"
      ],
      [
        "ну",
        "ть"
      ],
      [
        "▁ч",
        "ер"
      ],
      [
        "▁с",
        "мі"
      ],
      [
        "▁не",
        "бо"
      ],
      [
        "ло",
        "ся"
      ],
      [
        "ні",
        "й"
      ],
      [
        "▁лю",
        "ди"
      ],
      [
        "у",
        "же"
      ],
      [
        "ю",
        "чи"
      ],
      [
        "▁о",
        "чі"
      ],
      [
        "мов",
        "ля"
      ],
      [
        "ри",
        "на"
      ],
      [
        "▁т",
        "ре"
      ],
      [
        "▁мо",
        "же"
      ],
      [
        "▁мо",
        "ска"
      ],
      [
        "де",
        "ш"
      ],
      [
        "▁го",
        "ре"
      ],
      [
        "▁г",
        "е"
      ],
      [
        "▁про",
        "к"
      ],
      [
        "ни",
        "м"
      ],
      [
        "ни",
        "х"
      ],
      [
        "нь",
        "ка"
      ],
      [
        "▁си",
        "на"
      ],
      [
        "▁с",
        "пи"
      ],
      [
        "ни",
        "к"
      ],
      [
        "в",
        "ши"
      ],
      [
        "▁",
        "ри"
      ],
      [
        "то",
        "й"
      ],
      [
        "▁бу",
        "ло"
      ],
      [
        "пі",
        "д"
      ],
      [
        "▁",
        "ло"
      ],
      [
        "▁ї",
        "ї"
      ],
      [
        "с",
        "ко"
      ],
      [
        "да",
        "ла"
      ],
      [
        "▁ж",
        "у"
      ],
      [
        "▁во",
        "ро"
      ],
      [
        "с",
        "мі"
      ],
      [
        "ро",
        "би"
      ],
      [
        "хо",
        "ди"
      ],
      [
        "▁сві",
        "т"
      ],
      [
        "▁ст",
        "ра"
      ],
      [
        "▁сльо",
        "зи"
      ],
      [
        "о",
        "так"
      ],
      [
        "і",
        "з"
      ],
      [
        "та",
        "ки"
      ],
      [
        "не",
        "ма"
      ],
      [
        "ло",
        "м"
      ],
      [
        "ва",
        "є"
      ],
      [
        "▁ш",
        "ля"
      ],
      [
        "▁ди",
        "ви"
      ],
      [
        "▁са",
        "мо"
      ],
      [
        "▁гу",
        "ля"
      ],
      [
        "с",
        "ло"
      ],
      [
        "▁",
        "рі"
      ],
      [
        "▁ко",
        "лись"
      ],
      [
        "▁ве",
        "ли"
      ],
      [
        "▁зем",
        "лі"
      ],
      [
        "▁зно",
        "ву"
      ],
      [
        "ю",
        "ться"
      ],
      [
        "▁в",
        "зя"
      ],
      [
        "▁у",
        "бо"
      ],
      [
        "▁ма",
        "р"
      ],
      [
        "▁чу",
        "жи"
      ],
      [
        "та",
        "м"
      ],
      [
        "ри",
        "ть"
      ],
      [
        "ве",
        "ли"
      ],
      [
        "▁лю",
        "бо"
      ],
      [
        "▁ш",
        "у"
      ],
      [
        "ере",
        "д"
      ],
      [
        "▁зна",
        "є"
      ],
      [
        "▁в",
        "ста"
      ],
      [
        "▁що",
        "б"
      ],
      [
        "▁ста",
        "ло"
      ],
      [
        "бе",
        "з"
      ],
      [
        "▁ха",
        "ту"
      ],
      [
        "е",
        "т"
      ],
      [
        "з",
        "на"
      ],
      [
        "т",
        "ро"
      ],
      [
        "ч",
        "ок"
      ],
      [
        "▁ба",
        "й"
      ],
      [
        "▁ва",
        "с"
      ],
      [
        "▁пла",
        "че"
      ],
      [
        "б",
        "ро"
      ],
      [
        "с",
        "ю"
      ],
      [
        "▁по",
        "хо"
      ],
      [
        "чи",
        "ть"
      ],
      [
        "▁то",
        "бі"
      ],
      [
        "▁ста",
        "ро"
      ],
      [
        "▁те",
        "м"
      ],
      [
        "▁ха",
        "ті"
      ],
      [
        "д",
        "ру"
      ],
      [
        "р",
        "ю"
      ],
      [
        "рі",
        "в"
      ],
      [
        "нь",
        "ку"
      ],
      [
        "▁ні",
        "чого"
      ],
      [
        "▁хо",
        "ч"
      ],
      [
        "▁сло",
        "во"
      ],
      [
        "▁нево",
        "лі"
      ],
      [
        "то",
        "ю"
      ],
      [
        "▁мо",
        "є"
      ],
      [
        "нь",
        "ки"
      ],
      [
        "▁лі",
        "та"
      ],
      [
        "о",
        "т"
      ],
      [
        "я",
        "ть"
      ],
      [
        "▁м",
        "і"
      ],
      [
        "ро",
        "ма"
      ],
      [
        "ко",
        "за"
      ],
      [
        "ка",
        "ла"
      ],
      [
        "па",
        "ли"
      ],
      [
        "▁ка",
        "йда"
      ],
      [
        "▁па",
        "н"
      ],
      [
        "▁сво",
        "ю"
      ],
      [
        "▁дівча",
        "та"
      ],
      [
        "б",
        "ла"
      ],
      [
        "г",
        "ла"
      ],
      [
        "▁в",
        "сі"
      ],
      [
        "▁по",
        "лі"
      ],
      [
        "▁о",
        "ста"
      ],
      [
        "▁па",
        "ла"
      ],
      [
        "з",
        "і"
      ],
      [
        "х",
        "у"
      ],
      [
        "ч",
        "ко"
      ],
      [
        "ну",
        "ю"
      ],
      [
        "мо",
        "ви"
      ],
      [
        "▁го",
        "ро"
      ],
      [
        "▁тя",
        "жко"
      ],
      [
        "о",
        "н"
      ],
      [
        "▁з",
        "ло"
      ],
      [
        "▁мо",
        "ли"
      ],
      [
        "▁ко",
        "ло"
      ],
      [
        "хо",
        "ч"
      ],
      [
        "▁а",
        "ж"
      ],
      [
        "си",
        "ть"
      ],
      [
        "▁зна",
        "ю"
      ],
      [
        "к",
        "ру"
      ],
      [
        "н",
        "ці"
      ],
      [
        "п",
        "ли"
      ],
      [
        "▁не",
        "до"
      ],
      [
        "▁до",
        "ро"
      ],
      [
        "ма",
        "н"
      ],
      [
        "▁ко",
        "ли"
      ],
      [
        "▁во",
        "на"
      ],
      [
        "▁хо",
        "че"
      ],
      [
        "▁бать",
        "ко"
      ],
      [
        "в",
        "се"
      ],
      [
        "п",
        "ре"
      ],
      [
        "ни",
        "ці"
      ],
      [
        "▁т",
        "ри"
      ],
      [
        "лю",
        "ся"
      ],
      [
        "▁х",
        "то"
      ],
      [
        "▁се",
        "ло"
      ],
      [
        "▁са",
        "м"
      ],
      [
        "▁ті",
        "лько"
      ],
      [
        "на",
        "й"
      ],
      [
        "▁по",
        "га"
      ],
      [
        "ди",
        "но"
      ],
      [
        "лю",
        "би"
      ],
      [
        "▁г",
        "рі"
      ],
      [
        "▁ш",
        "а"
      ],
      [
        "▁дру",
        "же"
      ],
      [
        "▁дити",
        "на"
      ],
      [
        "▁шу",
        "ка"
      ],
      [
        "ні",
        "є"
      ],
      [
        "▁т",
        "ру"
      ],
      [
        "▁за",
        "пла"
      ],
      [
        "ве",
        "се"
      ],
      [
        "▁ви",
        "со"
      ],
      [
        "як",
        "би"
      ],
      [
        "▁при",
        "й"
      ],
      [
        "▁се",
        "ст"
      ],
      [
        "ме",
        "не"
      ],
      [
        "▁ва",
        "м"
      ],
      [
        "▁де",
        "нь"
      ],
      [
        "▁є",
        "ди"
      ],
      [
        "▁ши",
        "ро"
      ],
      [
        "б",
        "ри"
      ],
      [
        "б",
        "ря"
      ],
      [
        "к",
        "ло"
      ],
      [
        "с",
        "ві"
      ],
      [
        "▁за",
        "бу"
      ],
      [
        "по",
        "ро"
      ],
      [
        "за",
        "ми"
      ],
      [
        "▁го",
        "лу"
      ],
      [
        "▁ти",
        "х"
      ],
      [
        "▁те",
        "пер"
      ],
      [
        "▁ду",
        "шу"
      ],
      [
        "г",
        "е"
      ],
      [
        "ка",
        "к"
      ],
      [
        "▁на",
        "ш"
      ],
      [
        "во",
        "ю"
      ],
      [
        "да",
        "й"
      ],
      [
        "ну",
        "ла"
      ],
      [
        "▁то",
        "бою"
      ],
      [
        "▁ба",
        "га"
      ],
      [
        "▁ї",
        "й"
      ],
      [
        "гу",
        "ля"
      ],
      [
        "▁чор",
        "но"
      ],
      [
        "г",
        "і"
      ],
      [
        "т",
        "ре"
      ],
      [
        "▁н",
        "у"
      ],
      [
        "та",
        "я"
      ],
      [
        "▁на",
        "м"
      ],
      [
        "▁й",
        "ому"
      ],
      [
        "ті",
        "м"
      ],
      [
        "▁бо",
        "гу"
      ],
      [
        "ву",
        "ть"
      ],
      [
        "▁ми",
        "лий"
      ],
      [
        "▁ду",
        "ма"
      ],
      [
        "▁сон",
        "це"
      ],
      [
        "а",
        "бо"
      ],
      [
        "г",
        "ра"
      ],
      [
        "▁с",
        "хо"
      ],
      [
        "ли",
        "на"
      ],
      [
        "ні",
        "ї"
      ],
      [
        "ди",
        "в"
      ],
      [
        "▁до",
        "ля"
      ],
      [
        "▁х",
        "ре"
      ],
      [
        "▁ко",
        "го"
      ],
      [
        "▁ро",
        "би"
      ],
      [
        "ст",
        "рі"
      ],
      [
        "▁ста",
        "рий"
      ],
      [
        "▁роз",
        "мовля"
      ],
      [
        "▁доб",
        "ре"
      ],
      [
        "кі",
        "ї"
      ],
      [
        "ко",
        "й"
      ],
      [
        "ко",
        "ї"
      ],
      [
        "▁не",
        "ді"
      ],
      [
        "▁по",
        "диви"
      ],
      [
        "во",
        "ни"
      ],
      [
        "ди",
        "ли"
      ],
      [
        "лю",
        "де"
      ],
      [
        "▁х",
        "ма"
      ],
      [
        "▁ч",
        "е"
      ],
      [
        "па",
        "ла"
      ],
      [
        "▁ді",
        "то"
      ],
      [
        "▁ї",
        "м"
      ],
      [
        "▁чу",
        "ж"
      ],
      [
        "▁доб",
        "ро"
      ],
      [
        "▁сла",
        "ва"
      ],
      [
        "▁украї",
        "ні"
      ],
      [
        "▁жа",
        "ль"
      ],
      [
        "▁ге",
        "ть"
      ],
      [
        "т",
        "ра"
      ],
      [
        "ч",
        "о"
      ],
      [
        "▁в",
        "до"
      ],
      [
        "▁х",
        "у"
      ],
      [
        "▁во",
        "лю"
      ],
      [
        "▁лю",
        "дя"
      ],
      [
        "жи",
        "й"
      ],
      [
        "▁са",
        "до"
      ],
      [
        "▁зе",
        "ле"
      ],
      [
        "сла",
        "в"
      ],
      [
        "д",
        "но"
      ],
      [
        "х",
        "і"
      ],
      [
        "▁",
        "це"
      ],
      [
        "да",
        "ли"
      ],
      [
        "▁к",
        "ру"
      ],
      [
        "▁ма",
        "тер"
      ],
      [
        "▁ка",
        "же"
      ],
      [
        "▁бу",
        "ла"
      ],
      [
        "▁ме",
        "ж"
      ],
      [
        "▁пла",
        "чу"
      ],
      [
        "▁ни",
        "ми"
      ],
      [
        "▁с",
        "ви"
      ],
      [
        "то",
        "пи"
      ],
      [
        "да",
        "в"
      ],
      [
        "▁до",
        "сі"
      ],
      [
        "ті",
        "р"
      ],
      [
        "▁го",
        "ри"
      ],
      [
        "▁во",
        "ни"
      ],
      [
        "ги",
        "й"
      ],
      [
        "▁ди",
        "тя"
      ],
      [
        "▁сво",
        "є"
      ],
      [
        "▁ру",
        "ки"
      ],
      [
        "▁дів",
        "чи"
      ],
      [
        "▁ска",
        "за"
      ],
      [
        "▁нема",
        "є"
      ],
      [
        "▁бла",
        "га"
      ],
      [
        "к",
        "ій"
      ],
      [
        "с",
        "ни"
      ],
      [
        "▁з",
        "гада"
      ],
      [
        "ти",
        "м"
      ],
      [
        "▁т",
        "ро"
      ],
      [
        "ві",
        "й"
      ],
      [
        "мо",
        "же"
      ],
      [
        "▁го",
        "во"
      ],
      [
        "ст",
        "во"
      ],
      [
        "ді",
        "ї"
      ],
      [
        "▁ви",
        "гля"
      ],
      [
        "▁ка",
        "те"
      ],
      [
        "▁си",
        "н"
      ],
      [
        "ці",
        "лу"
      ],
      [
        "ту",
        "ю"
      ],
      [
        "▁се",
        "бе"
      ],
      [
        "▁ра",
        "з"
      ],
      [
        "▁жи",
        "ти"
      ],
      [
        "г",
        "не"
      ],
      [
        "й",
        "ого"
      ],
      [
        "ш",
        "ь"
      ],
      [
        "ро",
        "д"
      ],
      [
        "ку",
        "ю"
      ],
      [
        "ті",
        "ї"
      ],
      [
        "▁к",
        "ня"
      ],
      [
        "▁ка",
        "к"
      ],
      [
        "н",
        "ку"
      ],
      [
        "не",
        "ться"
      ],
      [
        "но",
        "чі"
      ],
      [
        "ни",
        "ми"
      ],
      [
        "▁мо",
        "ю"
      ],
      [
        "да",
        "ть"
      ],
      [
        "▁до",
        "ли"
      ],
      [
        "▁до",
        "ле"
      ],
      [
        "те",
        "бе"
      ],
      [
        "до",
        "м"
      ],
      [
        "ді",
        "в"
      ],
      [
        "▁ви",
        "й"
      ],
      [
        "ме",
        "ні"
      ],
      [
        "▁коза",
        "к"
      ],
      [
        "▁украї",
        "ну"
      ],
      [
        "▁тре",
        "ба"
      ],
      [
        "▁прок",
        "ля"
      ],
      [
        "к",
        "ла"
      ],
      [
        "т",
        "ри"
      ],
      [
        "де",
        "нь"
      ],
      [
        "▁во",
        "лі"
      ],
      [
        "жи",
        "ть"
      ],
      [
        "ня",
        "та"
      ],
      [
        "▁па",
        "на"
      ],
      [
        "▁се",
        "ла"
      ],
      [
        "▁ті",
        "ї"
      ],
      [
        "▁бра",
        "та"
      ],
      [
        "▁най",
        "ми"
      ],
      [
        "тала",
        "н"
      ],
      [
        "пра",
        "в"
      ],
      [
        "▁моска",
        "лі"
      ],
      [
        "д",
        "ве"
      ],
      [
        "н",
        "ка"
      ],
      [
        "ї",
        "ть"
      ],
      [
        "ти",
        "ся"
      ],
      [
        "▁м",
        "ною"
      ],
      [
        "▁до",
        "ве"
      ],
      [
        "мо",
        "я"
      ],
      [
        "ті",
        "лько"
      ],
      [
        "▁бо",
        "жий"
      ],
      [
        "ве",
        "д"
      ],
      [
        "▁со",
        "бою"
      ],
      [
        "▁ви",
        "ро"
      ],
      [
        "▁бра",
        "те"
      ],
      [
        "▁сла",
        "в"
      ],
      [
        "▁ска",
        "же"
      ],
      [
        "▁чужи",
        "ні"
      ],
      [
        "▁людя",
        "м"
      ],
      [
        "г",
        "ли"
      ],
      [
        "я",
        "не"
      ],
      [
        "ї",
        "в"
      ],
      [
        "та",
        "й"
      ],
      [
        "на",
        "х"
      ],
      [
        "▁не",
        "ї"
      ],
      [
        "ва",
        "й"
      ],
      [
        "по",
        "чи"
      ],
      [
        "ві",
        "н"
      ],
      [
        "ій",
        "ш"
      ],
      [
        "хи",
        "ли"
      ],
      [
        "▁кро",
        "в"
      ],
      [
        "▁спо",
        "чи"
      ],
      [
        "сер",
        "це"
      ],
      [
        "▁чорно",
        "бри"
      ],
      [
        "к",
        "ро"
      ],
      [
        "▁",
        "ф"
      ],
      [
        "▁с",
        "лі"
      ],
      [
        "▁с",
        "ле"
      ],
      [
        "▁м",
        "не"
      ],
      [
        "ло",
        "п"
      ],
      [
        "▁по",
        "ро"
      ],
      [
        "ва",
        "ри"
      ],
      [
        "за",
        "в"
      ],
      [
        "▁к",
        "е"
      ],
      [
        "▁во",
        "ль"
      ],
      [
        "▁во",
        "дою"
      ],
      [
        "▁ти",
        "м"
      ],
      [
        "ча",
        "й"
      ],
      [
        "▁ш",
        "ко"
      ],
      [
        "пу",
        "сти"
      ],
      [
        "▁ту",
        "т"
      ],
      [
        "дя",
        "ть"
      ],
      [
        "▁пере",
        "д"
      ],
      [
        "с",
        "к"
      ],
      [
        "ю",
        "сь"
      ],
      [
        "▁",
        "ю"
      ],
      [
        "▁з",
        "у"
      ],
      [
        "▁по",
        "ли"
      ],
      [
        "ні",
        "хто"
      ],
      [
        "▁о",
        "б"
      ],
      [
        "▁за",
        "в"
      ],
      [
        "ну",
        "ли"
      ],
      [
        "до",
        "му"
      ],
      [
        "▁та",
        "ки"
      ],
      [
        "▁го",
        "р"
      ],
      [
        "▁ч",
        "ого"
      ],
      [
        "▁во",
        "ду"
      ],
      [
        "▁ма",
        "тір"
      ],
      [
        "ст",
        "я"
      ],
      [
        "▁про",
        "па"
      ],
      [
        "▁ш",
        "е"
      ],
      [
        "▁роз",
        "ка"
      ],
      [
        "бу",
        "ло"
      ],
      [
        "▁се",
        "лі"
      ],
      [
        "▁сер",
        "д"
      ],
      [
        "▁жи",
        "ть"
      ],
      [
        "▁свя",
        "то"
      ],
      [
        "▁пла",
        "ка"
      ],
      [
        "▁люде",
        "й"
      ],
      [
        "жу",
        "ть"
      ],
      [
        "▁кра",
        "ю"
      ],
      [
        "▁ки",
        "м"
      ],
      [
        "▁ца",
        "р"
      ],
      [
        "▁сте",
        "пу"
      ],
      [
        "б",
        "я"
      ],
      [
        "г",
        "на"
      ],
      [
        "п",
        "ере"
      ],
      [
        "▁с",
        "лу"
      ],
      [
        "го",
        "ло"
      ],
      [
        "▁не",
        "ю"
      ],
      [
        "ка",
        "я"
      ],
      [
        "не",
        "се"
      ],
      [
        "ди",
        "н"
      ],
      [
        "ви",
        "лі"
      ],
      [
        "до",
        "б"
      ],
      [
        "▁ч",
        "о"
      ],
      [
        "▁г",
        "ру"
      ],
      [
        "▁бу",
        "ду"
      ],
      [
        "ста",
        "рий"
      ],
      [
        "са",
        "ма"
      ],
      [
        "▁ми",
        "на"
      ],
      [
        "▁ди",
        "в"
      ],
      [
        "со",
        "м"
      ],
      [
        "▁да",
        "в"
      ],
      [
        "▁да",
        "ле"
      ],
      [
        "▁га",
        "ю"
      ],
      [
        "▁доб",
        "рі"
      ],
      [
        "▁лу",
        "ка"
      ],
      [
        "▁бла",
        "го"
      ],
      [
        "д",
        "ні"
      ],
      [
        "д",
        "жа"
      ],
      [
        "е",
        "й"
      ],
      [
        "л",
        "ля"
      ],
      [
        "с",
        "пі"
      ],
      [
        "т",
        "ник"
      ],
      [
        "ц",
        "ві"
      ],
      [
        "▁с",
        "ко"
      ],
      [
        "▁с",
        "мер"
      ],
      [
        "▁п",
        "ер"
      ],
      [
        "▁в",
        "ра"
      ],
      [
        "ли",
        "м"
      ],
      [
        "▁б",
        "ере"
      ],
      [
        "ка",
        "х"
      ],
      [
        "▁по",
        "ло"
      ],
      [
        "▁на",
        "ми"
      ],
      [
        "ви",
        "м"
      ],
      [
        "те",
        "сь"
      ],
      [
        "▁г",
        "ля"
      ],
      [
        "▁си",
        "ну"
      ],
      [
        "▁ста",
        "ла"
      ],
      [
        "мі",
        "й"
      ],
      [
        "▁сер",
        "де"
      ],
      [
        "▁ті",
        "м"
      ],
      [
        "▁свя",
        "того"
      ],
      [
        "▁тво",
        "ї"
      ],
      [
        "кру",
        "гом"
      ],
      [
        "о",
        "на"
      ],
      [
        "▁",
        "р"
      ],
      [
        "на",
        "що"
      ],
      [
        "▁по",
        "ля"
      ],
      [
        "▁по",
        "тім"
      ],
      [
        "ни",
        "цю"
      ],
      [
        "▁о",
        "к"
      ],
      [
        "▁о",
        "дино"
      ],
      [
        "лю",
        "сь"
      ],
      [
        "ви",
        "н"
      ],
      [
        "мо",
        "ю"
      ],
      [
        "мо",
        "ли"
      ],
      [
        "▁го",
        "ди"
      ],
      [
        "хо",
        "ді"
      ],
      [
        "▁г",
        "и"
      ],
      [
        "▁г",
        "ра"
      ],
      [
        "би",
        "ра"
      ],
      [
        "ча",
        "ть"
      ],
      [
        "▁хо",
        "ло"
      ],
      [
        "▁пі",
        "шла"
      ],
      [
        "▁од",
        "на"
      ],
      [
        "▁моло",
        "до"
      ],
      [
        "▁ни",
        "м"
      ],
      [
        "▁сі",
        "м"
      ],
      [
        "▁сте",
        "па"
      ],
      [
        "▁дити",
        "ну"
      ],
      [
        "▁моги",
        "ли"
      ],
      [
        "▁люби",
        "ть"
      ],
      [
        "▁тя",
        "ж"
      ],
      [
        "▁кайда",
        "ни"
      ],
      [
        "о",
        "то"
      ],
      [
        "с",
        "лу"
      ],
      [
        "ш",
        "но"
      ],
      [
        "та",
        "х"
      ],
      [
        "▁з",
        "ла"
      ],
      [
        "▁б",
        "ро"
      ],
      [
        "ко",
        "ло"
      ],
      [
        "не",
        "сли"
      ],
      [
        "▁по",
        "ба"
      ],
      [
        "во",
        "на"
      ],
      [
        "▁за",
        "хо"
      ],
      [
        "▁за",
        "ги"
      ],
      [
        "да",
        "ти"
      ],
      [
        "ну",
        "лась"
      ],
      [
        "▁до",
        "в"
      ],
      [
        "▁до",
        "лю"
      ],
      [
        "▁х",
        "лоп"
      ],
      [
        "те",
        "й"
      ],
      [
        "ду",
        "чи"
      ],
      [
        "▁к",
        "ві"
      ],
      [
        "▁ти",
        "хи"
      ],
      [
        "▁бу",
        "р"
      ],
      [
        "ча",
        "ль"
      ],
      [
        "▁па",
        "ни"
      ],
      [
        "▁бра",
        "т"
      ],
      [
        "▁моло",
        "ди"
      ],
      [
        "▁спа",
        "ти"
      ],
      [
        "▁сло",
        "ва"
      ],
      [
        "поро",
        "ж"
      ],
      [
        "▁матер",
        "і"
      ],
      [
        "п",
        "рий"
      ],
      [
        "с",
        "ку"
      ],
      [
        "ч",
        "ор"
      ],
      [
        "▁в",
        "сю"
      ],
      [
        "▁з",
        "роби"
      ],
      [
        "ти",
        "ть"
      ],
      [
        "ло",
        "го"
      ],
      [
        "ри",
        "но"
      ],
      [
        "ки",
        "х"
      ],
      [
        "▁і",
        "ва"
      ],
      [
        "де",
        "м"
      ],
      [
        "мо",
        "ї"
      ],
      [
        "ма",
        "р"
      ],
      [
        "ду",
        "ма"
      ],
      [
        "ду",
        "же"
      ],
      [
        "ду",
        "жа"
      ],
      [
        "▁во",
        "ля"
      ],
      [
        "▁ти",
        "та"
      ],
      [
        "▁ста",
        "не"
      ],
      [
        "ере",
        "з"
      ],
      [
        "▁ди",
        "во"
      ],
      [
        "▁хо",
        "дила"
      ],
      [
        "▁ві",
        "тер"
      ],
      [
        "▁са",
        "ма"
      ],
      [
        "▁но",
        "чі"
      ],
      [
        "тя",
        "жко"
      ],
      [
        "▁кра",
        "й"
      ],
      [
        "▁бачи",
        "ш"
      ],
      [
        "сво",
        "ю"
      ],
      [
        "▁дні",
        "про"
      ],
      [
        "▁неді",
        "лю"
      ],
      [
        "▁ок",
        "са"
      ],
      [
        "з",
        "ли"
      ],
      [
        "р",
        "ма"
      ],
      [
        "▁с",
        "к"
      ],
      [
        "ли",
        "х"
      ],
      [
        "то",
        "п"
      ],
      [
        "ра",
        "ми"
      ],
      [
        "▁по",
        "ка"
      ],
      [
        "ва",
        "в"
      ],
      [
        "▁т",
        "ра"
      ],
      [
        "▁до",
        "лі"
      ],
      [
        "лі",
        "ї"
      ],
      [
        "ве",
        "т"
      ],
      [
        "ве",
        "ла"
      ],
      [
        "▁во",
        "но"
      ],
      [
        "▁ма",
        "мо"
      ],
      [
        "ста",
        "ла"
      ],
      [
        "▁ду",
        "р"
      ],
      [
        "▁га",
        "ї"
      ],
      [
        "▁моло",
        "дії"
      ],
      [
        "▁пра",
        "вед"
      ],
      [
        "▁сла",
        "ву"
      ],
      [
        "▁ки",
        "їв"
      ],
      [
        "▁бі",
        "ль"
      ],
      [
        "▁пу",
        "сти"
      ],
      [
        "▁співа",
        "є"
      ],
      [
        "▁зас",
        "піва"
      ],
      [
        "смі",
        "х"
      ],
      [
        "с",
        "но"
      ],
      [
        "с",
        "ле"
      ],
      [
        "та",
        "ти"
      ],
      [
        "та",
        "ми"
      ],
      [
        "ли",
        "ть"
      ],
      [
        "на",
        "ми"
      ],
      [
        "не",
        "ш"
      ],
      [
        "▁по",
        "гуля"
      ],
      [
        "▁о",
        "так"
      ],
      [
        "▁за",
        "к"
      ],
      [
        "▁х",
        "и"
      ],
      [
        "те",
        "ся"
      ],
      [
        "те",
        "пер"
      ],
      [
        "ле",
        "ю"
      ],
      [
        "бо",
        "гу"
      ],
      [
        "▁ко",
        "б"
      ],
      [
        "▁ні",
        "ч"
      ],
      [
        "▁при",
        "ві"
      ],
      [
        "▁зна",
        "ла"
      ],
      [
        "жу",
        "ри"
      ],
      [
        "сту",
        "ся"
      ],
      [
        "▁госпо",
        "ди"
      ],
      [
        "▁чер",
        "во"
      ],
      [
        "бла",
        "го"
      ],
      [
        "в",
        "ра"
      ],
      [
        "п",
        "еред"
      ],
      [
        "с",
        "па"
      ],
      [
        "с",
        "піва"
      ],
      [
        "я",
        "н"
      ],
      [
        "▁",
        "ря"
      ],
      [
        "▁п",
        "ле"
      ],
      [
        "▁з",
        "и"
      ],
      [
        "▁не",
        "з"
      ],
      [
        "ка",
        "є"
      ],
      [
        "▁по",
        "ра"
      ],
      [
        "▁на",
        "в"
      ],
      [
        "ні",
        "м"
      ],
      [
        "чи",
        "ма"
      ],
      [
        "▁у",
        "ли"
      ],
      [
        "ля",
        "ть"
      ],
      [
        "мо",
        "ло"
      ],
      [
        "рі",
        "б"
      ],
      [
        "ті",
        "й"
      ],
      [
        "▁ти",
        "ном"
      ],
      [
        "▁ка",
        "ли"
      ],
      [
        "▁ні",
        "би"
      ],
      [
        "▁так",
        "е"
      ],
      [
        "▁ча",
        "с"
      ],
      [
        "▁прав",
        "да"
      ],
      [
        "той",
        "ді"
      ],
      [
        "люде",
        "й"
      ],
      [
        "й",
        "ну"
      ],
      [
        "о",
        "та"
      ],
      [
        "х",
        "ре"
      ],
      [
        "ч",
        "то"
      ],
      [
        "щ",
        "у"
      ],
      [
        "є",
        "мо"
      ],
      [
        "і",
        "де"
      ],
      [
        "та",
        "ли"
      ],
      [
        "▁д",
        "з"
      ],
      [
        "ка",
        "м"
      ],
      [
        "ва",
        "ють"
      ],
      [
        "ва",
        "лись"
      ],
      [
        "во",
        "го"
      ],
      [
        "во",
        "но"
      ],
      [
        "ни",
        "ки"
      ],
      [
        "ди",
        "ти"
      ],
      [
        "по",
        "м"
      ],
      [
        "чи",
        "й"
      ],
      [
        "▁до",
        "жи"
      ],
      [
        "ви",
        "х"
      ],
      [
        "ви",
        "чай"
      ],
      [
        "лі",
        "й"
      ],
      [
        "за",
        "р"
      ],
      [
        "▁ж",
        "і"
      ],
      [
        "▁то",
        "р"
      ],
      [
        "ді",
        "й"
      ],
      [
        "ча",
        "ли"
      ],
      [
        "бу",
        "дь"
      ],
      [
        "▁сві",
        "та"
      ],
      [
        "▁ра",
        "й"
      ],
      [
        "▁сер",
        "деш"
      ],
      [
        "▁га",
        "й"
      ],
      [
        "кі",
        "в"
      ],
      [
        "▁кри",
        "ниці"
      ],
      [
        "▁без",
        "талан"
      ],
      [
        "▁моги",
        "лі"
      ],
      [
        "вши",
        "сь"
      ],
      [
        "▁старо",
        "го"
      ],
      [
        "б",
        "лю"
      ],
      [
        "я",
        "ла"
      ],
      [
        "▁",
        "ть"
      ],
      [
        "▁с",
        "ку"
      ],
      [
        "▁с",
        "еред"
      ],
      [
        "го",
        "во"
      ],
      [
        "не",
        "будь"
      ],
      [
        "▁по",
        "ви"
      ],
      [
        "▁о",
        "р"
      ],
      [
        "▁о",
        "сь"
      ],
      [
        "▁о",
        "ду"
      ],
      [
        "▁за",
        "порож"
      ],
      [
        "ну",
        "ло"
      ],
      [
        "ві",
        "ки"
      ],
      [
        "▁х",
        "ри"
      ],
      [
        "рі",
        "й"
      ],
      [
        "▁ч",
        "то"
      ],
      [
        "хо",
        "м"
      ],
      [
        "▁г",
        "ла"
      ],
      [
        "▁г",
        "ро"
      ],
      [
        "▁бу",
        "в"
      ],
      [
        "▁ні",
        "кому"
      ],
      [
        "▁од",
        "почи"
      ],
      [
        "ок",
        "са"
      ],
      [
        "▁ца",
        "ря"
      ],
      [
        "▁зо",
        "ло"
      ],
      [
        "▁кро",
        "ві"
      ],
      [
        "▁госпо",
        "да"
      ],
      [
        "▁прав",
        "ди"
      ],
      [
        "вно",
        "чі"
      ],
      [
        "▁свої",
        "м"
      ],
      [
        "▁жу",
        "па"
      ],
      [
        "▁бай",
        "дуже"
      ],
      [
        "▁дівчи",
        "на"
      ],
      [
        "в",
        "ста"
      ],
      [
        "ли",
        "ли"
      ],
      [
        "го",
        "р"
      ],
      [
        "то",
        "чка"
      ],
      [
        "▁на",
        "у"
      ],
      [
        "ва",
        "лась"
      ],
      [
        "▁т",
        "ій"
      ],
      [
        "ки",
        "м"
      ],
      [
        "по",
        "ле"
      ],
      [
        "ми",
        "на"
      ],
      [
        "▁до",
        "мови"
      ],
      [
        "▁у",
        "же"
      ],
      [
        "нь",
        "кий"
      ],
      [
        "ве",
        "чер"
      ],
      [
        "▁ма",
        "ле"
      ],
      [
        "▁со",
        "ба"
      ],
      [
        "си",
        "ла"
      ],
      [
        "▁ка",
        "ра"
      ],
      [
        "▁ме",
        "ня"
      ],
      [
        "пі",
        "шов"
      ],
      [
        "пи",
        "ла"
      ],
      [
        "▁роз",
        "п"
      ],
      [
        "▁сві",
        "ту"
      ],
      [
        "▁ве",
        "чер"
      ],
      [
        "▁кра",
        "со"
      ],
      [
        "▁прок",
        "лина"
      ],
      [
        "▁диви",
        "ться"
      ],
      [
        "▁тих",
        "е"
      ],
      [
        "▁кате",
        "рина"
      ],
      [
        "▁зу",
        "стрі"
      ],
      [
        "доб",
        "ре"
      ],
      [
        "г",
        "рі"
      ],
      [
        "з",
        "гада"
      ],
      [
        "ш",
        "ком"
      ],
      [
        "▁п",
        "та"
      ],
      [
        "▁з",
        "га"
      ],
      [
        "ти",
        "хо"
      ],
      [
        "на",
        "стуся"
      ],
      [
        "го",
        "ду"
      ],
      [
        "ко",
        "в"
      ],
      [
        "ри",
        "ли"
      ],
      [
        "▁на",
        "ді"
      ],
      [
        "да",
        "ють"
      ],
      [
        "▁й",
        "де"
      ],
      [
        "ну",
        "вся"
      ],
      [
        "ви",
        "ли"
      ],
      [
        "ма",
        "є"
      ],
      [
        "▁х",
        "вилі"
      ],
      [
        "рі",
        "я"
      ],
      [
        "рі",
        "зь"
      ],
      [
        "▁ко",
        "му"
      ],
      [
        "би",
        "ли"
      ],
      [
        "си",
        "дить"
      ],
      [
        "▁ба",
        "ч"
      ],
      [
        "▁ні",
        "коли"
      ],
      [
        "▁ду",
        "ми"
      ],
      [
        "▁сльо",
        "зами"
      ],
      [
        "зо",
        "м"
      ],
      [
        "▁зно",
        "в"
      ],
      [
        "▁помо",
        "ли"
      ],
      [
        "▁вели",
        "кий"
      ],
      [
        "▁єди",
        "ний"
      ],
      [
        "н",
        "цю"
      ],
      [
        "щ",
        "і"
      ],
      [
        "▁",
        "л"
      ],
      [
        "▁в",
        "ночі"
      ],
      [
        "▁д",
        "ва"
      ],
      [
        "ти",
        "ні"
      ],
      [
        "ко",
        "ві"
      ],
      [
        "ра",
        "з"
      ],
      [
        "ло",
        "ве"
      ],
      [
        "▁по",
        "ма"
      ],
      [
        "ри",
        "м"
      ],
      [
        "ва",
        "жа"
      ],
      [
        "ні",
        "би"
      ],
      [
        "▁т",
        "ю"
      ],
      [
        "ди",
        "ба"
      ],
      [
        "▁мо",
        "ско"
      ],
      [
        "да",
        "ле"
      ],
      [
        "ми",
        "й"
      ],
      [
        "за",
        "пла"
      ],
      [
        "▁та",
        "я"
      ],
      [
        "▁го",
        "ду"
      ],
      [
        "▁го",
        "ді"
      ],
      [
        "▁то",
        "по"
      ],
      [
        "▁г",
        "рома"
      ],
      [
        "па",
        "я"
      ],
      [
        "че",
        "м"
      ],
      [
        "▁си",
        "лу"
      ],
      [
        "▁що",
        "сь"
      ],
      [
        "▁ста",
        "рі"
      ],
      [
        "▁хо",
        "дить"
      ],
      [
        "бу",
        "ть"
      ],
      [
        "▁ві",
        "к"
      ],
      [
        "▁ра",
        "но"
      ],
      [
        "▁зем",
        "лю"
      ],
      [
        "роз",
        "і"
      ],
      [
        "▁украї",
        "ни"
      ],
      [
        "чер",
        "во"
      ],
      [
        "▁весе",
        "ло"
      ],
      [
        "▁жу",
        "ри"
      ],
      [
        "▁шля",
        "х"
      ],
      [
        "▁кайда",
        "нах"
      ],
      [
        "▁пала",
        "ти"
      ],
      [
        "▁тро",
        "хи"
      ],
      [
        "▁тита",
        "рів"
      ],
      [
        "вичай",
        "не"
      ],
      [
        "б",
        "лу"
      ],
      [
        "к",
        "си"
      ],
      [
        "о",
        "ста"
      ],
      [
        "т",
        "ка"
      ],
      [
        "ч",
        "ому"
      ],
      [
        "ї",
        "ха"
      ],
      [
        "▁с",
        "пі"
      ],
      [
        "▁д",
        "ля"
      ],
      [
        "▁не",
        "наче"
      ],
      [
        "не",
        "й"
      ],
      [
        "не",
        "ра"
      ],
      [
        "не",
        "ць"
      ],
      [
        "▁по",
        "жа"
      ],
      [
        "▁по",
        "над"
      ],
      [
        "▁по",
        "люби"
      ],
      [
        "ва",
        "ю"
      ],
      [
        "но",
        "чку"
      ],
      [
        "▁за",
        "ко"
      ],
      [
        "да",
        "ю"
      ],
      [
        "ві",
        "р"
      ],
      [
        "▁до",
        "дому"
      ],
      [
        "ви",
        "со"
      ],
      [
        "▁у",
        "ми"
      ],
      [
        "▁у",
        "сміх"
      ],
      [
        "мо",
        "ска"
      ],
      [
        "ма",
        "лі"
      ],
      [
        "до",
        "ро"
      ],
      [
        "бо",
        "й"
      ],
      [
        "▁ро",
        "д"
      ],
      [
        "че",
        "й"
      ],
      [
        "ст",
        "ри"
      ],
      [
        "▁ді",
        "я"
      ],
      [
        "ста",
        "в"
      ],
      [
        "пі",
        "шла"
      ],
      [
        "ря",
        "ть"
      ],
      [
        "бу",
        "де"
      ],
      [
        "▁зна",
        "єш"
      ],
      [
        "▁сво",
        "го"
      ],
      [
        "▁ц",
        "ві"
      ],
      [
        "▁и",
        "з"
      ],
      [
        "▁пла",
        "ч"
      ],
      [
        "▁бра",
        "ти"
      ],
      [
        "▁чи",
        "ма"
      ],
      [
        "▁пе",
        "тру"
      ],
      [
        "▁коза",
        "ць"
      ],
      [
        "▁е",
        "го"
      ],
      [
        "▁бачи",
        "в"
      ],
      [
        "▁люби",
        "ла"
      ],
      [
        "▁сиро",
        "та"
      ],
      [
        "▁доли",
        "ні"
      ],
      [
        "▁молодо",
        "го"
      ],
      [
        "н",
        "є"
      ],
      [
        "р",
        "ту"
      ],
      [
        "с",
        "лі"
      ],
      [
        "у",
        "м"
      ],
      [
        "ч",
        "ці"
      ],
      [
        "ч",
        "ком"
      ],
      [
        "ш",
        "ки"
      ],
      [
        "▁",
        "щи"
      ],
      [
        "ли",
        "бо"
      ],
      [
        "то",
        "к"
      ],
      [
        "то",
        "му"
      ],
      [
        "ка",
        "в"
      ],
      [
        "ка",
        "ли"
      ],
      [
        "не",
        "сла"
      ],
      [
        "▁по",
        "ді"
      ],
      [
        "▁по",
        "кри"
      ],
      [
        "▁по",
        "хили"
      ],
      [
        "ри",
        "ла"
      ],
      [
        "но",
        "ї"
      ],
      [
        "но",
        "му"
      ],
      [
        "во",
        "м"
      ],
      [
        "ки",
        "ми"
      ],
      [
        "да",
        "м"
      ],
      [
        "да",
        "я"
      ],
      [
        "чи",
        "в"
      ],
      [
        "ви",
        "ть"
      ],
      [
        "лі",
        "та"
      ],
      [
        "ма",
        "на"
      ],
      [
        "ті",
        "в"
      ],
      [
        "▁ко",
        "си"
      ],
      [
        "▁лю",
        "д"
      ],
      [
        "▁ді",
        "во"
      ],
      [
        "▁ді",
        "бро"
      ],
      [
        "▁ста",
        "ли"
      ],
      [
        "▁те",
        "є"
      ],
      [
        "▁ні",
        "хто"
      ],
      [
        "▁ра",
        "до"
      ],
      [
        "со",
        "тник"
      ],
      [
        "▁пі",
        "ду"
      ],
      [
        "ши",
        "х"
      ],
      [
        "▁буде",
        "м"
      ],
      [
        "тя",
        "ть"
      ],
      [
        "▁пе",
        "чаль"
      ],
      [
        "▁бачи",
        "ть"
      ],
      [
        "сво",
        "ї"
      ],
      [
        "▁бать",
        "ка"
      ],
      [
        "тих",
        "е"
      ],
      [
        "▁ге",
        "нера"
      ],
      [
        "▁голу",
        "б"
      ],
      [
        "цілу",
        "є"
      ],
      [
        "ійш",
        "лись"
      ],
      [
        "д",
        "жу"
      ],
      [
        "з",
        "ни"
      ],
      [
        "о",
        "бі"
      ],
      [
        "п",
        "ле"
      ],
      [
        "я",
        "на"
      ],
      [
        "є",
        "ї"
      ],
      [
        "▁с",
        "я"
      ],
      [
        "та",
        "в"
      ],
      [
        "го",
        "рі"
      ],
      [
        "го",
        "спо"
      ],
      [
        "▁не",
        "си"
      ],
      [
        "▁не",
        "ба"
      ],
      [
        "не",
        "є"
      ],
      [
        "▁по",
        "ве"
      ],
      [
        "ва",
        "ми"
      ],
      [
        "ся",
        "ць"
      ],
      [
        "ни",
        "ця"
      ],
      [
        "ки",
        "ну"
      ],
      [
        "▁о",
        "жи"
      ],
      [
        "ди",
        "ву"
      ],
      [
        "ля",
        "ться"
      ],
      [
        "га",
        "є"
      ],
      [
        "га",
        "ми"
      ],
      [
        "ле",
        "ньку"
      ],
      [
        "▁к",
        "і"
      ],
      [
        "▁ко",
        "ха"
      ],
      [
        "се",
        "нько"
      ],
      [
        "ба",
        "ть"
      ],
      [
        "ха",
        "ла"
      ],
      [
        "▁ми",
        "ло"
      ],
      [
        "ме",
        "ж"
      ],
      [
        "▁чу",
        "жі"
      ],
      [
        "▁га",
        "д"
      ],
      [
        "▁ц",
        "у"
      ],
      [
        "▁доб",
        "ра"
      ],
      [
        "▁співа",
        "ють"
      ],
      [
        "▁ча",
        "сом"
      ],
      [
        "▁само",
        "го"
      ],
      [
        "▁гуля",
        "є"
      ],
      [
        "▁бай",
        "ст"
      ],
      [
        "▁сест",
        "ри"
      ],
      [
        "▁діто",
        "к"
      ],
      [
        "▁вдо",
        "ви"
      ],
      [
        "▁садо",
        "чок"
      ],
      [
        "▁кру",
        "гом"
      ],
      [
        "▁ф",
        "а"
      ],
      [
        "▁серд",
        "це"
      ],
      [
        "▁хлоп",
        "ці"
      ],
      [
        "д",
        "на"
      ],
      [
        "д",
        "во"
      ],
      [
        "о",
        "в"
      ],
      [
        "о",
        "це"
      ],
      [
        "с",
        "н"
      ],
      [
        "ц",
        "и"
      ],
      [
        "ч",
        "ерез"
      ],
      [
        "▁",
        "льо"
      ],
      [
        "ро",
        "ни"
      ],
      [
        "ро",
        "ди"
      ],
      [
        "ка",
        "ти"
      ],
      [
        "▁по",
        "м"
      ],
      [
        "▁по",
        "ві"
      ],
      [
        "▁по",
        "зи"
      ],
      [
        "ри",
        "ну"
      ],
      [
        "ва",
        "на"
      ],
      [
        "▁о",
        "та"
      ],
      [
        "▁за",
        "ходи"
      ],
      [
        "▁і",
        "н"
      ],
      [
        "по",
        "сто"
      ],
      [
        "по",
        "диви"
      ],
      [
        "да",
        "вно"
      ],
      [
        "ві",
        "т"
      ],
      [
        "ви",
        "ла"
      ],
      [
        "▁я",
        "ко"
      ],
      [
        "▁я",
        "ру"
      ],
      [
        "лі",
        "є"
      ],
      [
        "▁у",
        "сі"
      ],
      [
        "ля",
        "ка"
      ],
      [
        "мо",
        "сь"
      ],
      [
        "ма",
        "ти"
      ],
      [
        "те",
        "ль"
      ],
      [
        "ле",
        "две"
      ],
      [
        "рі",
        "є"
      ],
      [
        "▁то",
        "вари"
      ],
      [
        "▁г",
        "і"
      ],
      [
        "▁г",
        "ре"
      ],
      [
        "▁г",
        "лу"
      ],
      [
        "▁во",
        "з"
      ],
      [
        "▁ма",
        "ю"
      ],
      [
        "па",
        "н"
      ],
      [
        "ст",
        "ра"
      ],
      [
        "▁ка",
        "рі"
      ],
      [
        "ча",
        "є"
      ],
      [
        "▁ді",
        "тей"
      ],
      [
        "▁ста",
        "р"
      ],
      [
        "ере",
        "жа"
      ],
      [
        "▁хо",
        "ди"
      ],
      [
        "▁ра",
        "с"
      ],
      [
        "▁ра",
        "ю"
      ],
      [
        "ши",
        "ро"
      ],
      [
        "▁ли",
        "ше"
      ],
      [
        "▁пла",
        "кала"
      ],
      [
        "ска",
        "жи"
      ],
      [
        "▁но",
        "чу"
      ],
      [
        "▁ту",
        "р"
      ],
      [
        "▁є",
        "си"
      ],
      [
        "▁зем",
        "лею"
      ],
      [
        "▁серце",
        "м"
      ],
      [
        "▁сто",
        "ро"
      ],
      [
        "од",
        "на"
      ],
      [
        "▁сон",
        "ця"
      ],
      [
        "▁бог",
        "да"
      ],
      [
        "▁прав",
        "ду"
      ],
      [
        "▁сиро",
        "ти"
      ],
      [
        "▁сиро",
        "тою"
      ],
      [
        "▁пала",
        "тах"
      ],
      [
        "▁горо",
        "ю"
      ],
      [
        "▁роби",
        "ти"
      ],
      [
        "▁син",
        "є"
      ],
      [
        "▁ке",
        "са"
      ],
      [
        "ото",
        "ж"
      ],
      [
        "▁дов",
        "го"
      ],
      [
        "▁тю",
        "р"
      ],
      [
        "в",
        "сі"
      ],
      [
        "д",
        "ер"
      ],
      [
        "к",
        "ли"
      ],
      [
        "н",
        "на"
      ],
      [
        "н",
        "ке"
      ],
      [
        "с",
        "льо"
      ],
      [
        "т",
        "ни"
      ],
      [
        "ш",
        "ся"
      ],
      [
        "я",
        "в"
      ],
      [
        "▁в",
        "ся"
      ],
      [
        "▁в",
        "чи"
      ],
      [
        "▁в",
        "мі"
      ],
      [
        "▁в",
        "кра"
      ],
      [
        "та",
        "ть"
      ],
      [
        "та",
        "ка"
      ],
      [
        "▁з",
        "і"
      ],
      [
        "ро",
        "ю"
      ],
      [
        "не",
        "су"
      ],
      [
        "▁по",
        "ко"
      ],
      [
        "ва",
        "ло"
      ],
      [
        "▁т",
        "ер"
      ],
      [
        "▁о",
        "бо"
      ],
      [
        "▁о",
        "це"
      ],
      [
        "▁і",
        "де"
      ],
      [
        "ви",
        "д"
      ],
      [
        "ма",
        "х"
      ],
      [
        "▁х",
        "вали"
      ],
      [
        "те",
        "є"
      ],
      [
        "до",
        "чку"
      ],
      [
        "ве",
        "н"
      ],
      [
        "ст",
        "ре"
      ],
      [
        "▁про",
        "сто"
      ],
      [
        "▁си",
        "дить"
      ],
      [
        "ча",
        "ти"
      ],
      [
        "▁ста",
        "ра"
      ],
      [
        "▁роз",
        "і"
      ],
      [
        "▁па",
        "ру"
      ],
      [
        "▁ми",
        "р"
      ],
      [
        "▁ди",
        "ву"
      ],
      [
        "▁ду",
        "ші"
      ],
      [
        "▁ві",
        "р"
      ],
      [
        "▁зна",
        "ть"
      ],
      [
        "▁зна",
        "ють"
      ],
      [
        "▁ц",
        "ер"
      ],
      [
        "▁свя",
        "ти"
      ],
      [
        "▁свя",
        "тий"
      ],
      [
        "▁свя",
        "тая"
      ],
      [
        "▁ни",
        "шком"
      ],
      [
        "▁дру",
        "га"
      ],
      [
        "▁ки",
        "є"
      ],
      [
        "▁тво",
        "я"
      ],
      [
        "▁су",
        "му"
      ],
      [
        "▁спа",
        "ла"
      ],
      [
        "▁вер",
        "ну"
      ],
      [
        "▁госпо",
        "дь"
      ],
      [
        "ца",
        "ря"
      ],
      [
        "зе",
        "ле"
      ],
      [
        "▁свої",
        "х"
      ],
      [
        "▁стра",
        "шно"
      ],
      [
        "▁мар",
        "ко"
      ],
      [
        "▁мі",
        "сяць"
      ],
      [
        "▁доро",
        "гу"
      ],
      [
        "тре",
        "ба"
      ],
      [
        "чо",
        "ра"
      ],
      [
        "▁згада",
        "ю"
      ],
      [
        "спі",
        "ву"
      ],
      [
        "▁вра",
        "нці"
      ],
      [
        "▁біль",
        "ш"
      ],
      [
        "▁коб",
        "зар"
      ],
      [
        "д",
        "ро"
      ],
      [
        "д",
        "ра"
      ],
      [
        "е",
        "м"
      ],
      [
        "ж",
        "но"
      ],
      [
        "н",
        "ний"
      ],
      [
        "о",
        "б"
      ],
      [
        "о",
        "дин"
      ],
      [
        "с",
        "ки"
      ],
      [
        "ф",
        "і"
      ],
      [
        "ь",
        "ю"
      ],
      [
        "я",
        "ли"
      ],
      [
        "я",
        "ні"
      ],
      [
        "я",
        "ний"
      ],
      [
        "▁с",
        "ні"
      ],
      [
        "▁в",
        "сь"
      ],
      [
        "▁з",
        "доро"
      ],
      [
        "то",
        "рі"
      ],
      [
        "ка",
        "н"
      ],
      [
        "не",
        "нько"
      ],
      [
        "не",
        "чко"
      ],
      [
        "▁по",
        "кло"
      ],
      [
        "▁на",
        "ша"
      ],
      [
        "но",
        "ді"
      ],
      [
        "ні",
        "чого"
      ],
      [
        "▁о",
        "г"
      ],
      [
        "▁за",
        "ро"
      ],
      [
        "▁за",
        "ба"
      ],
      [
        "чи",
        "м"
      ],
      [
        "чи",
        "ли"
      ],
      [
        "▁до",
        "ма"
      ],
      [
        "▁до",
        "гля"
      ],
      [
        "▁я",
        "р"
      ],
      [
        "▁я",
        "рина"
      ],
      [
        "▁у",
        "м"
      ],
      [
        "мо",
        "є"
      ],
      [
        "га",
        "ня"
      ],
      [
        "до",
        "в"
      ],
      [
        "до",
        "ва"
      ],
      [
        "ду",
        "ю"
      ],
      [
        "▁го",
        "сті"
      ],
      [
        "▁г",
        "рає"
      ],
      [
        "▁г",
        "либо"
      ],
      [
        "▁ма",
        "ло"
      ],
      [
        "си",
        "ли"
      ],
      [
        "▁про",
        "сить"
      ],
      [
        "▁ба",
        "р"
      ],
      [
        "пи",
        "ли"
      ],
      [
        "пи",
        "ть"
      ],
      [
        "▁роз",
        "ко"
      ],
      [
        "ту",
        "т"
      ],
      [
        "▁ми",
        "ки"
      ],
      [
        "▁хо",
        "дили"
      ],
      [
        "бу",
        "р"
      ],
      [
        "▁ра",
        "ї"
      ],
      [
        "чу",
        "ть"
      ],
      [
        "ши",
        "й"
      ],
      [
        "▁ва",
        "ми"
      ],
      [
        "▁ли",
        "ха"
      ],
      [
        "▁той",
        "ді"
      ],
      [
        "дь",
        "ми"
      ],
      [
        "▁спа",
        "ть"
      ],
      [
        "тво",
        "ї"
      ],
      [
        "▁оста",
        "лось"
      ],
      [
        "▁хма",
        "ри"
      ],
      [
        "хі",
        "ба"
      ],
      [
        "▁поло",
        "жи"
      ],
      [
        "▁серде",
        "нько"
      ],
      [
        "▁тихи",
        "й"
      ],
      [
        "сле",
        "пая"
      ],
      [
        "спа",
        "си"
      ],
      [
        "вечер",
        "і"
      ],
      [
        "б",
        "ля"
      ],
      [
        "г",
        "де"
      ],
      [
        "д",
        "не"
      ],
      [
        "е",
        "шь"
      ],
      [
        "л",
        "го"
      ],
      [
        "л",
        "ся"
      ],
      [
        "н",
        "це"
      ],
      [
        "о",
        "сь"
      ],
      [
        "п",
        "лю"
      ],
      [
        "п",
        "ря"
      ],
      [
        "р",
        "ти"
      ],
      [
        "р",
        "ку"
      ],
      [
        "є",
        "ю"
      ],
      [
        "▁",
        "ці"
      ],
      [
        "▁с",
        "ни"
      ],
      [
        "▁п",
        "са"
      ],
      [
        "▁з",
        "ій"
      ],
      [
        "▁не",
        "весе"
      ],
      [
        "ка",
        "бря"
      ],
      [
        "не",
        "з"
      ],
      [
        "▁по",
        "чу"
      ],
      [
        "▁по",
        "гля"
      ],
      [
        "ер",
        "у"
      ],
      [
        "ни",
        "ся"
      ],
      [
        "▁т",
        "вій"
      ],
      [
        "▁за",
        "й"
      ],
      [
        "▁за",
        "ри"
      ],
      [
        "▁за",
        "ре"
      ],
      [
        "▁і",
        "ноді"
      ],
      [
        "по",
        "над"
      ],
      [
        "▁мо",
        "л"
      ],
      [
        "▁мо",
        "ря"
      ],
      [
        "лю",
        "бо"
      ],
      [
        "чи",
        "на"
      ],
      [
        "де",
        "т"
      ],
      [
        "за",
        "ть"
      ],
      [
        "▁х",
        "лі"
      ],
      [
        "те",
        "че"
      ],
      [
        "бо",
        "же"
      ],
      [
        "▁го",
        "д"
      ],
      [
        "▁бо",
        "ж"
      ],
      [
        "▁бо",
        "гом"
      ],
      [
        "ль",
        "ни"
      ],
      [
        "▁лю",
        "дьми"
      ],
      [
        "па",
        "є"
      ],
      [
        "▁со",
        "ро"
      ],
      [
        "▁а",
        "посто"
      ],
      [
        "си",
        "ро"
      ],
      [
        "▁ка",
        "жуть"
      ],
      [
        "▁си",
        "вий"
      ],
      [
        "ха",
        "ме"
      ],
      [
        "сти",
        "ла"
      ],
      [
        "▁сві",
        "том"
      ],
      [
        "▁ра",
        "ді"
      ],
      [
        "ме",
        "ць"
      ],
      [
        "▁зна",
        "ли"
      ],
      [
        "▁чу",
        "ма"
      ],
      [
        "▁ве",
        "с"
      ],
      [
        "▁ве",
        "сі"
      ],
      [
        "▁пі",
        "шов"
      ],
      [
        "▁ц",
        "и"
      ],
      [
        "так",
        "е"
      ],
      [
        "сто",
        "їть"
      ],
      [
        "тя",
        "бря"
      ],
      [
        "▁дру",
        "го"
      ],
      [
        "▁дру",
        "жи"
      ],
      [
        "▁ту",
        "ю"
      ],
      [
        "вати",
        "сь"
      ],
      [
        "▁коза",
        "ки"
      ],
      [
        "▁сто",
        "їть"
      ],
      [
        "▁мов",
        "чки"
      ],
      [
        "▁пу",
        "ска"
      ],
      [
        "▁чор",
        "ні"
      ],
      [
        "▁моги",
        "ла"
      ],
      [
        "▁свої",
        "й"
      ],
      [
        "▁спи",
        "ть"
      ],
      [
        "▁взя",
        "ли"
      ],
      [
        "тро",
        "хи"
      ],
      [
        "коза",
        "ць"
      ],
      [
        "▁роби",
        "ть"
      ],
      [
        "▁геть",
        "ман"
      ],
      [
        "▁садо",
        "чку"
      ],
      [
        "▁вигля",
        "дає"
      ],
      [
        "▁дове",
        "лося"
      ],
      [
        "▁годи",
        "ну"
      ],
      [
        "ході",
        "м"
      ],
      [
        "▁всю",
        "ди"
      ],
      [
        "▁окса",
        "но"
      ],
      [
        "▁запорож",
        "ці"
      ],
      [
        "кан",
        "диба"
      ],
      [
        "а",
        "ні"
      ],
      [
        "г",
        "да"
      ],
      [
        "д",
        "рі"
      ],
      [
        "д",
        "ня"
      ],
      [
        "й",
        "ст"
      ],
      [
        "й",
        "дем"
      ],
      [
        "м",
        "не"
      ],
      [
        "н",
        "ге"
      ],
      [
        "п",
        "та"
      ],
      [
        "р",
        "ду"
      ],
      [
        "с",
        "ний"
      ],
      [
        "т",
        "ки"
      ],
      [
        "т",
        "ром"
      ],
      [
        "у",
        "сі"
      ],
      [
        "ц",
        "у"
      ],
      [
        "ю",
        "ся"
      ],
      [
        "я",
        "бря"
      ],
      [
        "▁с",
        "вет"
      ],
      [
        "▁в",
        "з"
      ],
      [
        "та",
        "р"
      ],
      [
        "та",
        "ють"
      ],
      [
        "▁д",
        "во"
      ],
      [
        "на",
        "в"
      ],
      [
        "то",
        "ї"
      ],
      [
        "▁по",
        "са"
      ],
      [
        "▁на",
        "ві"
      ],
      [
        "▁на",
        "ші"
      ],
      [
        "но",
        "к"
      ],
      [
        "но",
        "ві"
      ],
      [
        "▁о",
        "бі"
      ],
      [
        "▁за",
        "б"
      ],
      [
        "по",
        "ві"
      ],
      [
        "по",
        "га"
      ],
      [
        "▁й",
        "дучи"
      ],
      [
        "ми",
        "м"
      ],
      [
        "▁до",
        "розі"
      ],
      [
        "▁я",
        "г"
      ],
      [
        "▁я",
        "рино"
      ],
      [
        "▁у",
        "по"
      ],
      [
        "▁у",
        "би"
      ],
      [
        "мо",
        "м"
      ],
      [
        "за",
        "ре"
      ],
      [
        "до",
        "ви"
      ],
      [
        "хо",
        "ть"
      ],
      [
        "хо",
        "дить"
      ],
      [
        "▁бо",
        "жа"
      ],
      [
        "ве",
        "сь"
      ],
      [
        "▁лю",
        "бі"
      ],
      [
        "па",
        "в"
      ],
      [
        "▁со",
        "нечко"
      ],
      [
        "▁про",
        "ро"
      ],
      [
        "ча",
        "ла"
      ],
      [
        "▁ді",
        "ву"
      ],
      [
        "▁те",
        "бя"
      ],
      [
        "▁роз",
        "пи"
      ],
      [
        "▁при",
        "вела"
      ],
      [
        "▁сві",
        "й"
      ],
      [
        "▁ра",
        "ди"
      ],
      [
        "▁чу",
        "в"
      ],
      [
        "▁чу",
        "є"
      ],
      [
        "▁чу",
        "ть"
      ],
      [
        "▁да",
        "вно"
      ],
      [
        "▁ва",
        "р"
      ],
      [
        "▁и",
        "х"
      ],
      [
        "сто",
        "м"
      ],
      [
        "▁но",
        "ги"
      ],
      [
        "▁ру",
        "ках"
      ],
      [
        "пе",
        "тро"
      ],
      [
        "▁ст",
        "ре"
      ],
      [
        "▁коза",
        "ками"
      ],
      [
        "сту",
        "ть"
      ],
      [
        "щи",
        "й"
      ],
      [
        "бра",
        "ти"
      ],
      [
        "дає",
        "ться"
      ],
      [
        "▁су",
        "сі"
      ],
      [
        "▁дити",
        "но"
      ],
      [
        "▁кро",
        "ва"
      ],
      [
        "▁ши",
        "нку"
      ],
      [
        "▁дні",
        "п"
      ],
      [
        "йте",
        "ся"
      ],
      [
        "▁ля",
        "ха"
      ],
      [
        "▁смі",
        "ється"
      ],
      [
        "▁небо",
        "го"
      ],
      [
        "▁моска",
        "ля"
      ],
      [
        "отак",
        "е"
      ],
      [
        "нема",
        "є"
      ],
      [
        "▁шля",
        "ху"
      ],
      [
        "▁рі",
        "к"
      ],
      [
        "▁доро",
        "ги"
      ],
      [
        "▁грі",
        "ш"
      ],
      [
        "▁шука",
        "ти"
      ],
      [
        "▁широ",
        "кий"
      ],
      [
        "▁бага",
        "тий"
      ],
      [
        "▁чуж",
        "ому"
      ],
      [
        "дів",
        "ча"
      ],
      [
        "кро",
        "в"
      ],
      [
        "▁плака",
        "ть"
      ],
      [
        "▁див",
        "люся"
      ],
      [
        "▁одино",
        "кий"
      ],
      [
        "благо",
        "сло"
      ],
      [
        "окса",
        "на"
      ],
      [
        "лове",
        "й"
      ],
      [
        "▁моско",
        "в"
      ],
      [
        "▁титарів",
        "на"
      ],
      [
        "дво",
        "х"
      ],
      [
        "▁лише",
        "нь"
      ],
      [
        "г",
        "ло"
      ],
      [
        "г",
        "ри"
      ],
      [
        "г",
        "рає"
      ],
      [
        "з",
        "вичайне"
      ],
      [
        "м",
        "но"
      ],
      [
        "н",
        "н"
      ],
      [
        "н",
        "ко"
      ],
      [
        "н",
        "ну"
      ],
      [
        "о",
        "х"
      ],
      [
        "о",
        "си"
      ],
      [
        "п",
        "са"
      ],
      [
        "с",
        "ля"
      ],
      [
        "у",
        "се"
      ],
      [
        "ї",
        "ну"
      ],
      [
        "▁",
        "ща"
      ],
      [
        "▁с",
        "ти"
      ],
      [
        "▁в",
        "ку"
      ],
      [
        "ла",
        "ми"
      ],
      [
        "ти",
        "н"
      ],
      [
        "▁м",
        "ер"
      ],
      [
        "ть",
        "ми"
      ],
      [
        "на",
        "м"
      ],
      [
        "▁не",
        "бе"
      ],
      [
        "ра",
        "но"
      ],
      [
        "не",
        "м"
      ],
      [
        "▁по",
        "бі"
      ],
      [
        "ри",
        "х"
      ],
      [
        "▁на",
        "по"
      ],
      [
        "▁на",
        "пи"
      ],
      [
        "сь",
        "кого"
      ],
      [
        "ни",
        "ть"
      ],
      [
        "▁за",
        "пали"
      ],
      [
        "▁мо",
        "ей"
      ],
      [
        "де",
        "мо"
      ],
      [
        "ві",
        "ї"
      ],
      [
        "ви",
        "в"
      ],
      [
        "лі",
        "ла"
      ],
      [
        "▁у",
        "ночі"
      ],
      [
        "за",
        "ли"
      ],
      [
        "ма",
        "ле"
      ],
      [
        "га",
        "й"
      ],
      [
        "бо",
        "р"
      ],
      [
        "рі",
        "ї"
      ],
      [
        "▁то",
        "му"
      ],
      [
        "▁к",
        "ле"
      ],
      [
        "▁бо",
        "ці"
      ],
      [
        "▁ро",
        "ди"
      ],
      [
        "ст",
        "ва"
      ],
      [
        "▁со",
        "ловей"
      ],
      [
        "си",
        "ти"
      ],
      [
        "▁си",
        "бі"
      ],
      [
        "ча",
        "ст"
      ],
      [
        "▁ді",
        "ж"
      ],
      [
        "▁ді",
        "ла"
      ],
      [
        "ста",
        "ли"
      ],
      [
        "мі",
        "я"
      ],
      [
        "▁роз",
        "ійшлись"
      ],
      [
        "са",
        "м"
      ],
      [
        "▁при",
        "сни"
      ],
      [
        "▁зна",
        "й"
      ],
      [
        "▁пі",
        "шли"
      ],
      [
        "кра",
        "де"
      ],
      [
        "▁сер",
        "ці"
      ],
      [
        "▁да",
        "й"
      ],
      [
        "▁свя",
        "тую"
      ],
      [
        "▁бе",
        "д"
      ],
      [
        "▁буде",
        "ш"
      ],
      [
        "▁моло",
        "дою"
      ],
      [
        "▁моло",
        "дая"
      ],
      [
        "▁укра",
        "й"
      ],
      [
        "▁кри",
        "ницю"
      ],
      [
        "▁ле",
        "да"
      ],
      [
        "▁тво",
        "ю"
      ],
      [
        "▁тво",
        "ри"
      ],
      [
        "▁дні",
        "пра"
      ],
      [
        "мер",
        "ла"
      ],
      [
        "▁ля",
        "хи"
      ],
      [
        "сте",
        "й"
      ],
      [
        "сер",
        "деш"
      ],
      [
        "▁небо",
        "га"
      ],
      [
        "▁ри",
        "м"
      ],
      [
        "▁похо",
        "вали"
      ],
      [
        "▁діто",
        "чок"
      ],
      [
        "▁чуж",
        "ій"
      ],
      [
        "▁найми",
        "чка"
      ],
      [
        "прав",
        "ді"
      ],
      [
        "▁дове",
        "лось"
      ],
      [
        "▁серд",
        "ца"
      ],
      [
        "ході",
        "мо"
      ],
      [
        "▁бро",
        "ви"
      ],
      [
        "▁заги",
        "ну"
      ],
      [
        "▁погуля",
        "ти"
      ],
      [
        "▁ули",
        "ці"
      ],
      [
        "▁дз",
        "вони"
      ],
      [
        "б",
        "ере"
      ],
      [
        "в",
        "не"
      ],
      [
        "г",
        "рома"
      ],
      [
        "д",
        "ля"
      ],
      [
        "з",
        "но"
      ],
      [
        "к",
        "ля"
      ],
      [
        "о",
        "ни"
      ],
      [
        "с",
        "ій"
      ],
      [
        "с",
        "ню"
      ],
      [
        "ь",
        "ого"
      ],
      [
        "я",
        "ми"
      ],
      [
        "▁с",
        "ве"
      ],
      [
        "▁в",
        "ми"
      ],
      [
        "ли",
        "ця"
      ],
      [
        "ли",
        "цю"
      ],
      [
        "▁д",
        "я"
      ],
      [
        "то",
        "ми"
      ],
      [
        "▁не",
        "хай"
      ],
      [
        "ра",
        "к"
      ],
      [
        "ка",
        "те"
      ],
      [
        "ка",
        "йда"
      ],
      [
        "▁по",
        "л"
      ],
      [
        "▁по",
        "кої"
      ],
      [
        "▁на",
        "з"
      ],
      [
        "ва",
        "л"
      ],
      [
        "ва",
        "вся"
      ],
      [
        "ні",
        "в"
      ],
      [
        "▁о",
        "гне"
      ],
      [
        "▁за",
        "гу"
      ],
      [
        "▁за",
        "сту"
      ],
      [
        "▁за",
        "жури"
      ],
      [
        "▁мо",
        "й"
      ],
      [
        "да",
        "ми"
      ],
      [
        "▁у",
        "топи"
      ],
      [
        "ма",
        "рія"
      ],
      [
        "ре",
        "ць"
      ],
      [
        "ду",
        "р"
      ],
      [
        "ті",
        "я"
      ],
      [
        "ті",
        "ли"
      ],
      [
        "▁к",
        "ла"
      ],
      [
        "▁к",
        "ля"
      ],
      [
        "▁ко",
        "н"
      ],
      [
        "▁ко",
        "мо"
      ],
      [
        "▁бо",
        "я"
      ],
      [
        "▁бо",
        "ло"
      ],
      [
        "▁г",
        "ну"
      ],
      [
        "ль",
        "ки"
      ],
      [
        "▁лю",
        "ту"
      ],
      [
        "па",
        "ють"
      ],
      [
        "ді",
        "ли"
      ],
      [
        "ді",
        "ла"
      ],
      [
        "▁а",
        "нге"
      ],
      [
        "▁бу",
        "д"
      ],
      [
        "▁бу",
        "дуть"
      ],
      [
        "ста",
        "ра"
      ],
      [
        "ба",
        "га"
      ],
      [
        "▁ста",
        "в"
      ],
      [
        "▁ста",
        "ти"
      ],
      [
        "ха",
        "є"
      ],
      [
        "▁роз",
        "би"
      ],
      [
        "▁па",
        "м"
      ],
      [
        "бу",
        "ла"
      ],
      [
        "▁ві",
        "є"
      ],
      [
        "▁як",
        "би"
      ],
      [
        "▁зна",
        "ти"
      ],
      [
        "▁од",
        "но"
      ]
    ]
  }
}